/**
  ******************************************************************************
  * @file    network_ecblobs.h
  * @brief   NN Code autogenerated DO NOT MODIFY IT
  ******************************************************************************
  * @attention
  *
  * Copyright (c) 2024 STMicroelectronics.
  * All rights reserved.
  *
  * This software is licensed under terms that can be found in the LICENSE file
  * in the root directory of this software component.
  * If no LICENSE file comes with this software, it is provided AS-IS.
  *
  ******************************************************************************
  */


#ifdef __cplusplus
extern "C" {
#endif

#include "ll_aton_caches_interface.h"

#include <string.h>

#if !defined(ECBLOB_CONST_SECTION)
#define ECBLOB_CONST_SECTION /* Empty */
#endif
#if !defined(ECBLOB_RUNTIME_SECTION)
#define ECBLOB_RUNTIME_SECTION /* Empty */
#endif

ECBLOB_CONST_SECTION
// aligned to the cache line size (equal to 64 bytes)
__attribute__((aligned(64)))
static const uint64_t _ec_blob_network_3[16328] =
{
  0x00007f8dca057a7aUL, 0x008022410000007dUL, 0x080000005c000042UL, 0x5c027c0015000000UL,
  0x5c07004300070000UL, 0x0000002000004000UL, 0x000000005c0c0043UL, 0x0080206110411041UL,
  0x0008010420007c00UL, 0x3431000020020043UL, 0x200500c30000c000UL, 0x0000c00000000000UL,
  0x0000000000000000UL, 0x0010000000000024UL, 0x00000006200c0042UL, 0x200d004300000007UL,
  0x3431c03f00000001UL, 0x0000000020110043UL, 0x0080212100000000UL, 0x0008010c38007c00UL,
  0x342e000038020043UL, 0x380500c30000c000UL, 0x0000c00000000000UL, 0x0000000000000000UL,
  0x0010000000000024UL, 0x00000006380c0042UL, 0x380d004300000007UL, 0x342ec03f00000001UL,
  0x0000000038110043UL, 0x100b7c0000000000UL, 0x101e7c0000000025UL, 0x10007c0000000007UL,
  0x3800200100000001UL, 0x200020015c002001UL, 0x0000006438007fe4UL, 0x10007c0000000000UL,
  0x1000042400000002UL, 0x0000000000000064UL, 0x4000000010007c00UL, 0x0000006410007bc4UL,
  0x100b7c0000000000UL, 0x101e7c0000000000UL, 0x38007c0000000000UL, 0x3800042400000002UL,
  0x0000000000000064UL, 0x4000000038007c00UL, 0x0000006438007bc4UL, 0x0080012100000000UL,
  0x080000025c007c00UL, 0x000000645c000424UL, 0x5c007c0000000000UL, 0x5c007bc448000000UL,
  0x0000000000000064UL, 0x20007c0000800241UL, 0x2000042400000002UL, 0x0000000000000064UL,
  0x4000000020007c00UL, 0x0000006420007bc4UL, 0x0080006100000000UL, 0x008021410000009dUL,
  0x000000543c007c00UL, 0x100201013c0200e3UL, 0x10a3410100001100UL, 0xffff000000010002UL,
  0x00000001ffff0000UL, 0x000000003c0a7c00UL, 0x00fffff83c0c0043UL, 0x0080226100000000UL,
  0x0800000060000042UL, 0x60020123156000fcUL, 0x00000000000b0000UL, 0x0000000f0000000fUL,
  0x000000000000000fUL, 0x07c403f100000000UL, 0x600c004300000001UL, 0x2042204200000000UL,
  0x00000001600b7c00UL, 0xdf97559a61000403UL, 0xdfda38b90000015bUL, 0xdf0251300000e2b8UL,
  0xe0f54c2700004903UL, 0xdfbb459e0000dd4aUL, 0xde865321000078b4UL, 0xe005377a00005739UL,
  0xe008249f0000336eUL, 0xdf473c6100004c17UL, 0xdfee3659000035c4UL, 0xdf90538e00002acbUL,
  0xdeae32150000b481UL, 0xdf664ce7000055f5UL, 0xdeaa3a9a00000b5cUL, 0xdfa909ec0000ec43UL,
  0xdff047b700003a55UL, 0x008021610000bb91UL, 0x0010003440007c00UL, 0x08030303400200e3UL,
  0x1063450500002244UL, 0x017f000000800180UL, 0x00000001007f0000UL, 0x00000000400a7c00UL,
  0x00000000400d7c00UL, 0x6400004200802281UL, 0x156000fc08000000UL, 0x0008800064020123UL,
  0x0000000700000000UL, 0x0001ffff00007fffUL, 0x0000000000000000UL, 0x00000001078403f9UL,
  0x00000000640c0043UL, 0x640b7c0020422042UL, 0x6500080300000001UL, 0x0000eca9ff4500fdUL,
  0x000059a0fef10000UL, 0x00000974009a0950UL, 0x0000578fff10000aUL, 0x0000bd92002824b8UL,
  0x00001718ff270000UL, 0x00008961fe170000UL, 0x00009e22fe910000UL, 0x0000b64500ac077fUL,
  0x000086440009221cUL, 0x0000067eff5d2da1UL, 0x0000bbdb00021439UL, 0x00001d83fe6642d6UL,
  0x00003f90ffd81df5UL, 0x0000f3ff00331fdcUL, 0x0000ede1fe2f3e50UL, 0x0000e5fc002514d0UL,
  0x000022ff003e09e3UL, 0x0000b5cefeef0000UL, 0x00006e1dfe4a10c2UL, 0x0000a1d900190b9bUL,
  0x0000e92800221e5bUL, 0x00002652fee30000UL, 0x0000c547fff50000UL, 0x00002faafef80000UL,
  0x000079a7fcd04040UL, 0x0000d22efffd0ba9UL, 0x0000484dff230000UL, 0x00004ee7fd1958f7UL,
  0x00000158fee70000UL, 0x0000cee7002a257dUL, 0x0000dce0ff971f13UL, 0x68000042008022a1UL,
  0x1500000008000000UL, 0x0007000068027c00UL, 0x0000400068070043UL, 0x680c004300000020UL,
  0x1041104100000000UL, 0x14007c0000802001UL, 0x140200430008c104UL, 0x0000000234320000UL,
  0x00000000140500c3UL, 0x0000000100000002UL, 0x0000002400000000UL, 0x140c004200100000UL,
  0x0000000700000006UL, 0x00000001140d0043UL, 0x1411004334320047UL, 0x0000000000000000UL,
  0x24007c0000802081UL, 0x240200430008c184UL, 0x0000002071261be0UL, 0x00000000240500c3UL,
  0x0000000000000000UL, 0x0000002400000000UL, 0x240c004200100000UL, 0x0000000700000006UL,
  0x00000001240d0043UL, 0x2411004371261c3fUL, 0x0000000800000000UL, 0x34007c0000802101UL,
  0x3402004300080100UL, 0x0000c000342e0000UL, 0x00000000340500c3UL, 0x000000010000c000UL,
  0x0000002400000000UL, 0x340c004200100000UL, 0x0000000700000006UL, 0x00000004340d0043UL,
  0x34110043342ec03fUL, 0x0000000000000000UL, 0x1c007c0000802041UL, 0x1c02004300080184UL,
  0x0000036071261530UL, 0x000000001c0500c3UL, 0x0000000000000000UL, 0x0000002400000000UL,
  0x1c0c004200100000UL, 0x0000000700000006UL, 0x000000011c0d0043UL, 0x1c110043712618cfUL,
  0x0000000800000000UL, 0x20007c0000802061UL, 0x200200430008010cUL, 0x0000001034340040UL,
  0x00000000200500c3UL, 0x0000000000000010UL, 0x0000002400000000UL, 0x200c004200100000UL,
  0x0000000700000006UL, 0x00000001200d0043UL, 0x201100433434008fUL, 0x0000000000000000UL,
  0x18007c0000802021UL, 0x1802012300080008UL, 0x0040004034300000UL, 0x0000080000200008UL,
  0x0000000400000008UL, 0x0000002400020000UL, 0x180c004200100000UL, 0x0000000700000006UL,
  0x00000004180d0043UL, 0x181100433432003fUL, 0x0000000000000000UL, 0x0000002b10037c00UL,
  0x0000002710057c00UL, 0x00000001100c0043UL, 0x100f004300000009UL, 0x0000000500000011UL,
  0x0000001510207c00UL, 0x0000001710227c00UL, 0x0000002910247c00UL, 0x0000000110007c00UL,
  0x2000200118002001UL, 0x000000553c007c00UL, 0x0010003540007c00UL, 0x6400200160002001UL,
  0x1400200168002001UL, 0x240020011c002001UL, 0x18007fe434002001UL, 0x0000000000000064UL,
  0x0000006420007fe4UL, 0x10007c0000000000UL, 0x1000042400000002UL, 0x0000000000000064UL,
  0x4000000010007c00UL, 0x0000006410007bc4UL, 0x10037c0000000000UL, 0x10057c0000000000UL,
  0x100c004300000000UL, 0x0000000000000000UL, 0x00000000100f0043UL, 0x10207c0000000000UL,
  0x10227c0000000000UL, 0x10247c0000000000UL, 0x18007c0000000000UL, 0x1800042400000002UL,
  0x0000000000000064UL, 0x4000000018007c00UL, 0x0000006418007bc4UL, 0x0080002100000000UL,
  0x0000000220007c00UL, 0x0000006420000424UL, 0x20007c0000000000UL, 0x20007bc440000000UL,
  0x0000000000000064UL, 0x3c007c0000800061UL, 0x3c00042400000002UL, 0x0000000000000064UL,
  0x400000003c007c00UL, 0x000000643c007bc4UL, 0x0080014100000000UL, 0x0000000240007c00UL,
  0x0000006440000424UL, 0x40007c0000000000UL, 0x40007bc440000000UL, 0x0000000000000064UL,
  0x60007c0000800161UL, 0x6000042408000002UL, 0x0000000000000064UL, 0x4800000060007c00UL,
  0x0000006460007bc4UL, 0x0080026100000000UL, 0x0800000264007c00UL, 0x0000006464000424UL,
  0x64007c0000000000UL, 0x64007bc448000000UL, 0x0000000000000064UL, 0x68007c0000800281UL,
  0x6800042408000002UL, 0x0000000000000064UL, 0x4800000068007c00UL, 0x0000006468007bc4UL,
  0x008002a100000000UL, 0x0000000214007c00UL, 0x0000006414000424UL, 0x14007c0000000000UL,
  0x14007bc440000000UL, 0x0000000000000064UL, 0x1c007c0000800001UL, 0x1c00042400000002UL,
  0x0000000000000064UL, 0x400000001c007c00UL, 0x000000641c007bc4UL, 0x0080004100000000UL,
  0x0000000224007c00UL, 0x0000006424000424UL, 0x24007c0000000000UL, 0x24007bc440000000UL,
  0x0000000000000064UL, 0x34007c0000800081UL, 0x3400042400000002UL, 0x0000000000000064UL,
  0x4000000034007c00UL, 0x0000006434007bc4UL, 0x0080010100000000UL, 0x00802181000000bdUL,
  0x0010003444007c00UL, 0x01010303440200e3UL, 0x1063430300001155UL, 0x003f000000400040UL,
  0x00000001003f0000UL, 0x00000000440a7c00UL, 0x00000000440d7c00UL, 0x5c00004200802241UL,
  0x156000fc08000000UL, 0x000700005c020123UL, 0x0000000000000000UL, 0x0001ffff00000fffUL,
  0x0000000000000000UL, 0x0000000107840200UL, 0x000000005c0c0043UL, 0x5c0b7c0020422042UL,
  0x5d00080300000001UL, 0x0000cdacffdf005fUL, 0x000068b7ffd8447cUL, 0x00009324ffe00678UL,
  0x00005f5dffe4049eUL, 0x0000ab75fffc05fbUL, 0x000034baffdd0052UL, 0x00001ec4ffe42bf3UL,
  0x00003763ffd8419aUL, 0x00005dfdffe3060dUL, 0x00005171fff3050bUL, 0x00001f6efffb02ceUL,
  0x000020520002037cUL, 0x0000150efff40375UL, 0x0000dfc7ffe6050cUL, 0x00001898fffb0760UL,
  0x00000d00ffdd063aUL, 0x0000f065fff60586UL, 0x0000fb3dfff90ff4UL, 0x00006e7fffd96e43UL,
  0x0000b322ffdb189aUL, 0x0000945d00050d03UL, 0x000025e6fffe0789UL, 0x00000d04ffdc4654UL,
  0x0000abc8001f06fcUL, 0x0000961bffd875b3UL, 0x000013faffda08f8UL, 0x00007e6bfff90e41UL,
  0x0000d74cffcf02b9UL, 0x00004e62ffe304c9UL, 0x0000343dffd6247aUL, 0x0000e4c30002055aUL,
  0x0000b259fffd01bdUL, 0x6000004200802261UL, 0x1500000008000000UL, 0x0007000060027c00UL,
  0x0000400060070043UL, 0x600c004300000020UL, 0x1041104100000000UL, 0x38007c0000802121UL,
  0x3802012300080000UL, 0x0040004034300000UL, 0x0000080000200001UL, 0x0000000100000000UL,
  0x0000002400000001UL, 0x380c004200100000UL, 0x0000000700000006UL, 0x00000020380d0043UL,
  0x381100433432003fUL, 0x0000000000000000UL, 0x1c007c0000802041UL, 0x1c02004300080184UL,
  0x0000012071261a90UL, 0x000000001c0500c3UL, 0x0000000000000000UL, 0x0000002400000000UL,
  0x1c0c004200100000UL, 0x0000000700000006UL, 0x000000011c0d0043UL, 0x1c11004371261befUL,
  0x0000000800000000UL, 0x14007c0000802001UL, 0x1402012300080008UL, 0x00400040342e0000UL,
  0x0000080000200001UL, 0x0000002000000001UL, 0x0000002400020000UL, 0x140c004200100000UL,
  0x0000000700000006UL, 0x00000020140d0043UL, 0x141100433430003fUL, 0x0000000000000000UL,
  0x0000002710027c00UL, 0x0000001310120043UL, 0x101e7c0000000005UL, 0x10207c0000000019UL,
  0x10007c0000000025UL, 0x1400200100000001UL, 0x0010003544007c00UL, 0x600020015c002001UL,
  0x380020011c002001UL, 0x0000006414007fe4UL, 0x10007c0000000000UL, 0x1000042400000002UL,
  0x0000000000000064UL, 0x4000000010007c00UL, 0x0000006410007bc4UL, 0x10027c0000000000UL,
  0x1012004300000000UL, 0x0000000000000000UL, 0x00000000101e7c00UL, 0x0000000010207c00UL,
  0x0000000214007c00UL, 0x0000006414000424UL, 0x14007c0000000000UL, 0x14007bc440000000UL,
  0x0000000000000064UL, 0x44007c0000800001UL, 0x4400042400000002UL, 0x0000000000000064UL,
  0x4000000044007c00UL, 0x0000006444007bc4UL, 0x0080018100000000UL, 0x080000025c007c00UL,
  0x000000645c000424UL, 0x5c007c0000000000UL, 0x5c007bc448000000UL, 0x0000000000000064UL,
  0x60007c0000800241UL, 0x6000042408000002UL, 0x0000000000000064UL, 0x4800000060007c00UL,
  0x0000006460007bc4UL, 0x0080026100000000UL, 0x000000021c007c00UL, 0x000000641c000424UL,
  0x1c007c0000000000UL, 0x1c007bc440000000UL, 0x0000000000000064UL, 0x38007c0000800041UL,
  0x3800042400000002UL, 0x0000000000000064UL, 0x4000000038007c00UL, 0x0000006438007bc4UL,
  0x0080012100000000UL, 0x008021a1000000ddUL, 0x0010003448007c00UL, 0x10100101480200e3UL,
  0x1077400200001100UL, 0x03ff000000400400UL, 0x000f0020003f0000UL, 0x00000000480a7c00UL,
  0x00000000480d7c00UL, 0x3c007c0000802141UL, 0x3c0200e300100020UL, 0x0000110010100101UL,
  0x0040040010634200UL, 0x003f000003ff0000UL, 0x3c0a7c00001f1020UL, 0x3c0d7c0000000000UL,
  0x0080228100000000UL, 0x0800000064000042UL, 0x64020123156000fcUL, 0x00000000000a0000UL,
  0x0000ffff0000000fUL, 0x000000000000ffffUL, 0x07c403f100000000UL, 0x640c004300000001UL,
  0x2042204200000000UL, 0x00000001640b7c00UL, 0xfb83348965000403UL, 0x00c324720000ea45UL,
  0xf99c2d7d000047e8UL, 0x025b3e93000037b2UL, 0xfbfb1ee3000014e0UL, 0x04a06ab800001063UL,
  0x01cc4348000026ceUL, 0x0184443500000a18UL, 0x04a64df80000dbedUL, 0xfd7537a50000d820UL,
  0x00a1326600000f24UL, 0x0b6759a90000f9e7UL, 0xf5986b4d0000feacUL, 0xfa6126b9000090dcUL,
  0xffc047980000471cUL, 0x00f72faf0000f107UL, 0x008020c100006423UL, 0x000800042c007c00UL,
  0x342e00002c020123UL, 0x0020001000400040UL, 0x0000002000000800UL, 0x0000000000000001UL,
  0x0010000000000024UL, 0x000000062c0c0042UL, 0x2c0d004300000007UL, 0x3430003f00000001UL,
  0x000000002c110043UL, 0x0080202100000000UL, 0x0008018418007c00UL, 0x7126189018020043UL,
  0x180500c300000200UL, 0x0000000000000000UL, 0x0000000000000000UL, 0x0010000000000024UL,
  0x00000006180c0042UL, 0x180d004300000007UL, 0x71261acf00000001UL, 0x0000000018110043UL,
  0x0080206100000008UL, 0x0008000420007c00UL, 0x342e001020020123UL, 0x0020001000400040UL,
  0x0000002000000800UL, 0x0000000000000001UL, 0x0010000000000024UL, 0x00000006200c0042UL,
  0x200d004300000007UL, 0x3430003f00000001UL, 0x0000000020110043UL, 0x008020a100000000UL,
  0x0008010c28007c00UL, 0x3427000028020043UL, 0x280500c300010000UL, 0x0001000000000000UL,
  0x0000000000000000UL, 0x0010000000000024UL, 0x00000006280c0042UL, 0x280d004300000007UL,
  0x3428003f00000001UL, 0x0000000028110043UL, 0x10077c0000000000UL, 0x100c006300000029UL,
  0x0000000300000007UL, 0x101500430000001bUL, 0x000000030000000dUL, 0x0000001510227c00UL,
  0x0000000110007c00UL, 0x3c007c0028002001UL, 0x48007c0000100021UL, 0x6400200100100035UL,
  0x2000200118002001UL, 0x28007fe42c002001UL, 0x0000000000000064UL, 0x0000000210007c00UL,
  0x0000006410000424UL, 0x10007c0000000000UL, 0x10007bc440000000UL, 0x0000000000000064UL,
  0x0000000010077c00UL, 0x00000000100c0063UL, 0x0000000000000000UL, 0x0000000010150043UL,
  0x10227c0000000000UL, 0x28007c0000000000UL, 0x2800042400000002UL, 0x0000000000000064UL,
  0x4000000028007c00UL, 0x0000006428007bc4UL, 0x008000a100000000UL, 0x000000023c007c00UL,
  0x000000643c000424UL, 0x3c007c0000000000UL, 0x3c007bc440000000UL, 0x0000000000000064UL,
  0x48007c0000800141UL, 0x4800042400000002UL, 0x0000000000000064UL, 0x4000000048007c00UL,
  0x0000006448007bc4UL, 0x008001a100000000UL, 0x0800000264007c00UL, 0x0000006464000424UL,
  0x64007c0000000000UL, 0x64007bc448000000UL, 0x0000000000000064UL, 0x18007c0000800281UL,
  0x1800042400000002UL, 0x0000000000000064UL, 0x4000000018007c00UL, 0x0000006418007bc4UL,
  0x0080002100000000UL, 0x0000000220007c00UL, 0x0000006420000424UL, 0x20007c0000000000UL,
  0x20007bc440000000UL, 0x0000000000000064UL, 0x2c007c0000800061UL, 0x2c00042400000002UL,
  0x0000000000000064UL, 0x400000002c007c00UL, 0x000000642c007bc4UL, 0x008000c100000000UL,
  0x00802161000000fdUL, 0x0000005440007c00UL, 0x18100101400200e3UL, 0x10a3430300001100UL,
  0x03ff000000400400UL, 0x00000001003f0000UL, 0x00000000400a7c00UL, 0x00ffffec400c0043UL,
  0x008022a100000000UL, 0x0800000068000042UL, 0x68020123156000fcUL, 0x0000000000078000UL,
  0x00017fff00000017UL, 0x000000000005ffffUL, 0x068403e900000000UL, 0x680c004300000001UL,
  0x2042204200000000UL, 0x00000001680b7c00UL, 0xffc006f469001803UL, 0xffbf1081000035e2UL,
  0xffcf15320000801aUL, 0xffe8065700008dbeUL, 0x0002090b00006a41UL, 0xffda3eba0000d7c1UL,
  0xffcf2f0c0000bcdeUL, 0xffd707500000b084UL, 0xfffd16fb00003901UL, 0xfff30aeb0000b634UL,
  0xffd516ed0000504bUL, 0xffb926c70000d163UL, 0xffc00c8400005ab2UL, 0xffbf05d700001456UL,
  0xffbc1dc100007264UL, 0xffc132040000b00fUL, 0xffc10b5500001314UL, 0xfff1049e00007480UL,
  0xffba2e8900002bc3UL, 0xffd907ee0000aeceUL, 0x000119dc0000468cUL, 0xffbe0a7c0000e0a2UL,
  0xfffa04410000c17dUL, 0xffaf40e40000ee40UL, 0xffbd2d5a000014a5UL, 0xffe5060200000e06UL,
  0xffd008e90000719eUL, 0xffbe0b8900001671UL, 0xffd2131b0000b45dUL, 0xffff060c000059b9UL,
  0xffc60b8a00002831UL, 0xffdf0644000080a4UL, 0xffc5070100007da5UL, 0xffc3409600006139UL,
  0xffcb116c00006ffdUL, 0xffb137680000bf24UL, 0xffe8073f00004f52UL, 0xffc10845000008fdUL,
  0xfffc031d00004080UL, 0xffc105e700007619UL, 0xffbf1b0e00007e42UL, 0xffca588900009067UL,
  0x0015073300003eddUL, 0xffbf0d470000238eUL, 0xffbe29ce0000144bUL, 0xffcc0b9d0000c139UL,
  0xffbf09150000daa4UL, 0xffbe0d3900004edfUL, 0xffbf065a000016caUL, 0xffba121f0000c6d9UL,
  0x001b063100007cabUL, 0xffba18f500000248UL, 0xfff9048c00004f2cUL, 0xffe5064b00009b9aUL,
  0xffc006d30000d79bUL, 0xfffc0459000073feUL, 0xffc0135e0000f013UL, 0xffeb04ec00005bffUL,
  0xffbe08f70000357eUL, 0x000f05060000e00bUL, 0xffe3040d000091ecUL, 0xffc311b20000e23bUL,
  0xffee03b40000cf68UL, 0xffbf073c0000f42fUL, 0xffff03d700006ad0UL, 0xffcd38d900007a4fUL,
  0xffbe354a000004c8UL, 0xffdf075c00004f0aUL, 0xfff3066300001f21UL, 0x0001041b00006d65UL,
  0xff92127800004f83UL, 0xfff400000000ac1bUL, 0x001a076f0000ed9cUL, 0xffbe0a02000017d4UL,
  0xffbf09ba000092acUL, 0xfff40409000007f6UL, 0xffc008fa0000a9c2UL, 0xffbf0877000048ecUL,
  0xffba1b760000bc47UL, 0xffef050d000019a6UL, 0xffbf0b320000fa82UL, 0xffdc03060000de69UL,
  0xffd90462000099fdUL, 0xffe831240000eaeeUL, 0xffbe0d4b0000a5cbUL, 0xffc732290000fb24UL,
  0xffe00692000084ddUL, 0xffc4291200008176UL, 0xffc9483c000007d9UL, 0xffe8068700006ac6UL,
  0xfff311cf0000f2a4UL, 0xffc33ff100003457UL, 0xffc1079200007733UL, 0xffd805f200004577UL,
  0xffc6077200008cecUL, 0xffc33e3600000998UL, 0x008022410000eb1eUL, 0x080000005c000042UL,
  0x5c027c0015000000UL, 0x5c07004300070000UL, 0x0000002000004000UL, 0x000000005c0c0043UL,
  0x0080204110411041UL, 0x0008c1001c007c00UL, 0x342700001c020043UL, 0x1c0500c300010000UL,
  0x0001000000000000UL, 0x0000000000000001UL, 0x0010000000000024UL, 0x000000061c0c0042UL,
  0x1c0d004300000007UL, 0x3428003f00000004UL, 0x000000001c110043UL, 0x0080202100000000UL,
  0x0008c18418007c00UL, 0x71260a2018020043UL, 0x180500c300000600UL, 0x0000000000000000UL,
  0x0000000000000000UL, 0x0010000000000024UL, 0x00000006180c0042UL, 0x180d004300000007UL,
  0x7126105f00000001UL, 0x0000000018110043UL, 0x008020c100000008UL, 0x000800082c007c00UL,
  0x342e00002c020123UL, 0x0060001800400040UL, 0x0000001800001800UL, 0x0006000000000004UL,
  0x0010000000000024UL, 0x000000062c0c0042UL, 0x2c0d004300000007UL, 0x3434003f00000004UL,
  0x000000002c110043UL, 0x10087c0000000000UL, 0x100f004300000025UL, 0x0000000300000005UL,
  0x0000002b101e7c00UL, 0x0000001710247c00UL, 0x0000000110007c00UL, 0x40007c002c002001UL,
  0x5c00200100000055UL, 0x1800200168002001UL, 0x2c007fe41c002001UL, 0x0000000000000064UL,
  0x0000000210007c00UL, 0x0000006410000424UL, 0x10007c0000000000UL, 0x10007bc440000000UL,
  0x0000000000000064UL, 0x0000000010087c00UL, 0x00000000100f0043UL, 0x101e7c0000000000UL,
  0x10247c0000000000UL, 0x2c007c0000000000UL, 0x2c00042400000002UL, 0x0000000000000064UL,
  0x400000002c007c00UL, 0x000000642c007bc4UL, 0x008000c100000000UL, 0x0000000240007c00UL,
  0x0000006440000424UL, 0x40007c0000000000UL, 0x40007bc440000000UL, 0x0000000000000064UL,
  0x5c007c0000800161UL, 0x5c00042408000002UL, 0x0000000000000064UL, 0x480000005c007c00UL,
  0x000000645c007bc4UL, 0x0080024100000000UL, 0x0800000268007c00UL, 0x0000006468000424UL,
  0x68007c0000000000UL, 0x68007bc448000000UL, 0x0000000000000064UL, 0x18007c00008002a1UL,
  0x1800042400000002UL, 0x0000000000000064UL, 0x4000000018007c00UL, 0x0000006418007bc4UL,
  0x0080002100000000UL, 0x000000021c007c00UL, 0x000000641c000424UL, 0x1c007c0000000000UL,
  0x1c007bc440000000UL, 0x0000000000000064UL, 0x0000011d00800041UL, 0x44007c0000802181UL,
  0x440200e320100034UL, 0x0000220002020303UL, 0x0040008010634303UL, 0x003f0000007f0000UL,
  0x440a7c0000000001UL, 0x440d7c0001000200UL, 0x0080226100000000UL, 0x0800000060000042UL,
  0x60020123156000fcUL, 0x0000000000080000UL, 0x000007ff00000001UL, 0x0000000000017fffUL,
  0x068403ff00000000UL, 0x600c004300000001UL, 0x2042204200000000UL, 0x00000001600b7c00UL,
  0xff8207e361001803UL, 0xff8207a80000281dUL, 0x007e05c400003864UL, 0xff760b3500006907UL,
  0xff890fc90000aa30UL, 0xffca024e00007adcUL, 0xffc303e5000000beUL, 0xff7d09710000b2f7UL,
  0x007a0842000083d8UL, 0xff760b5d0000250aUL, 0xff8304140000cd54UL, 0xffc0061300007fc3UL,
  0xff82063400002216UL, 0xff820a4b0000321eUL, 0xffc9054200009fb8UL, 0x00730308000001b7UL,
  0xff9604ba0000fd6dUL, 0xff7313af00003117UL, 0xffb304be00007f1bUL, 0xff07091b00008a0dUL,
  0xff44041a00001527UL, 0xff88085800001b65UL, 0xff861c0500008a17UL, 0xffbc028f00002f18UL,
  0x0047025b000014b2UL, 0xfec4098c00009187UL, 0xff7e086f0000cb3cUL, 0xff8208f90000ebcaUL,
  0xfff10ae200009fd2UL, 0xff6e0f890000c626UL, 0xffa6083d00001cd7UL, 0xff760b520000f5aaUL,
  0xff7a0a9e00005d87UL, 0xffa7040d0000bd16UL, 0xffea08af0000e0a1UL, 0xffb0094a00003bf4UL,
  0xff7c09bf0000f7eaUL, 0x006e08570000c128UL, 0xff8619450000c2c1UL, 0xff83086800007732UL,
  0xffbf06b7000025eaUL, 0xffeb01cf00005c91UL, 0xff7c10df0000fbf6UL, 0xff830a670000751bUL,
  0xffc90ad500006da7UL, 0xff7f07960000345aUL, 0xff8309790000910aUL, 0xff83092e0000d36aUL,
  0xff84088a0000291fUL, 0xff8405450000ab41UL, 0xff9e135e0000242eUL, 0xff81069400000e4aUL,
  0xff830ead00006b6fUL, 0xff7812de00006598UL, 0xff8507d80000dc29UL, 0x00db0c280000abddUL,
  0xff8305490000e52dUL, 0xff860bc50000fc4eUL, 0x00680bba0000398eUL, 0xfcbf15a8000072f2UL,
  0xff931169000080fdUL, 0x007d05f100000cc2UL, 0xff8b126e0000ec1aUL, 0x007b0afa00004b1dUL,
  0xff9245230000d469UL, 0xffc401db000099cdUL, 0xffff022b00008fe1UL, 0xff7b0b70000006ecUL,
  0xff910fe30000e25cUL, 0xff9342de0000132aUL, 0xff970ebf0000fb43UL, 0x001839cc00000076UL,
  0xfd580ba90000ca89UL, 0xff8006a60000f1e8UL, 0xff81057a00004c77UL, 0xff7317c900005a68UL,
  0xff850b130000adadUL, 0xff820a2900000613UL, 0xff8c037d00002358UL, 0xff820fef00005a68UL,
  0xff800715000003e5UL, 0xff7b1ed50000c0fbUL, 0xff7511870000e7c2UL, 0xffcd021d00000decUL,
  0xff8207880000b4d7UL, 0xffbf055b000054d7UL, 0xff720d6600004e8dUL, 0xffbb062200004eccUL,
  0x003501e000001cd7UL, 0xff8b104d0000afd1UL, 0xff77053e0000414bUL, 0xffc1020e00002585UL,
  0xff8106970000090bUL, 0xff800dfb0000c784UL, 0xff8008ed00008f4bUL, 0x0007023e00000000UL,
  0x008022810000188fUL, 0x0800000064000042UL, 0x64027c0015000000UL, 0x6407004300070000UL,
  0x0000002000004000UL, 0x00000000640c0043UL, 0x0080210110411041UL, 0x0088020034007c00UL,
  0x342e000034020123UL, 0x0060000100400040UL, 0x0000000000001800UL, 0x0000000200000001UL,
  0x0010000000000024UL, 0x00000006340c0042UL, 0x340d004300000007UL, 0x3434003f00000030UL,
  0x0000000034110043UL, 0x0080206100000000UL, 0x0008018420007c00UL, 0x7125f5e020020043UL,
  0x200500c3000006c0UL, 0x0000000000000000UL, 0x0000000000000000UL, 0x0010000000000024UL,
  0x00000006200c0042UL, 0x200d004300000007UL, 0x7125fcdf00000001UL, 0x0000000020110043UL,
  0x0080202100000008UL, 0x0008000818007c00UL, 0x3427000018020123UL, 0x0060000200200020UL,
  0x0000000200000c00UL, 0x0001800000000030UL, 0x0010000000000024UL, 0x00000006180c0042UL,
  0x180d004300000007UL, 0x3428803f00000030UL, 0x0000000018110043UL, 0x10037c0000000000UL,
  0x1012004300000029UL, 0x0000000700000011UL, 0x0000001910207c00UL, 0x0000002710227c00UL,
  0x0000000110007c00UL, 0x44007c0018002001UL, 0x6000200120100035UL, 0x2000200164002001UL,
  0x18007fe434002001UL, 0x0000000000000064UL, 0x0000000210007c00UL, 0x0000006410000424UL,
  0x10007c0000000000UL, 0x10007bc440000000UL, 0x0000000000000064UL, 0x0000000010037c00UL,
  0x0000000010120043UL, 0x10207c0000000000UL, 0x10227c0000000000UL, 0x18007c0000000000UL,
  0x1800042400000002UL, 0x0000000000000064UL, 0x4000000018007c00UL, 0x0000006418007bc4UL,
  0x0080002100000000UL, 0x0000000244007c00UL, 0x0000006444000424UL, 0x44007c0000000000UL,
  0x44007bc440000000UL, 0x0000000000000064UL, 0x60007c0000800181UL, 0x6000042408000002UL,
  0x0000000000000064UL, 0x4800000060007c00UL, 0x0000006460007bc4UL, 0x0080026100000000UL,
  0x0800000264007c00UL, 0x0000006464000424UL, 0x64007c0000000000UL, 0x64007bc448000000UL,
  0x0000000000000064UL, 0x20007c0000800281UL, 0x2000042400000002UL, 0x0000000000000064UL,
  0x4000000020007c00UL, 0x0000006420007bc4UL, 0x0080006100000000UL, 0x0000000234007c00UL,
  0x0000006434000424UL, 0x34007c0000000000UL, 0x34007bc440000000UL, 0x0000000000000064UL,
  0x0000013d00800101UL, 0x3c007c0000802141UL, 0x3c0200e300100034UL, 0x0000110018180101UL,
  0x0020030010774004UL, 0x001f000002ff0000UL, 0x3c0a7c0000170060UL, 0x3c0d7c0000000000UL,
  0x008021a100000000UL, 0x0010002048007c00UL, 0x18180101480200e3UL, 0x1077400000001100UL,
  0x02ff000000200300UL, 0x002f1860001f0000UL, 0x00000000480a7c00UL, 0x00000000480d7c00UL,
  0x40007c0000802161UL, 0x400200e300100020UL, 0x0000110018180101UL, 0x0020030010774000UL,
  0x001f000002ff0000UL, 0x400a7c0000473060UL, 0x400d7c0000000000UL, 0x0080218100000000UL,
  0x0010002044007c00UL, 0x18180101440200e3UL, 0x1063440000001100UL, 0x02ff000000200300UL,
  0x005f4860001f0000UL, 0x00000000440a7c00UL, 0x00000000440d7c00UL, 0x5c00004200802241UL,
  0x156000fc08000000UL, 0x000900005c020123UL, 0x0000001700000000UL, 0x00005fff00005fffUL,
  0x0000000000000000UL, 0x0000000107a403e9UL, 0x000000005c0c0043UL, 0x5c0b7c0020422042UL,
  0x5d00060300000001UL, 0x0000a0560100384dUL, 0x00001b7401753223UL, 0x0000c8a0fe2c2a14UL,
  0x0000f840fee81e9fUL, 0x00004dcdfbd93a6eUL, 0x00009d7efe713499UL, 0x00005a9cffa22b9fUL,
  0x0000644600881d39UL, 0x0000bb25010b22eaUL, 0x0000c6a8ff974cb6UL, 0x0000d30affaf21caUL,
  0x0000ff8dfeb52ebaUL, 0x0000b5ba015921b9UL, 0x00007cd202e55d4dUL, 0x00005fc60186393cUL,
  0x0000cabeff453714UL, 0x0000997bff5a2c38UL, 0x00001f2aff812bb5UL, 0x00005cd1fee9299fUL,
  0x00005f7e002227eeUL, 0x0000de99001e2dc4UL, 0x0000c53001442900UL, 0x0000c013014a3c8dUL,
  0x00001dca00871980UL, 0x2c007c00008020c1UL, 0x2c02012300080004UL, 0x0020002034270000UL,
  0x00000c0000600018UL, 0x0000000100000060UL, 0x0000002400000000UL, 0x2c0c004200100000UL,
  0x0000000700000006UL, 0x000000012c0d0043UL, 0x2c1100433428803fUL, 0x0000000000000000UL,
  0x34007c0000802101UL, 0x3402004300080184UL, 0x000009007125ece0UL, 0x00000000340500c3UL,
  0x0000000000000000UL, 0x0000002400000000UL, 0x340c004200100000UL, 0x0000000700000006UL,
  0x00000001340d0043UL, 0x341100437125f61fUL, 0x0000000800000000UL, 0x30007c00008020e1UL,
  0x3002012300080004UL, 0x0020002034270018UL, 0x00000c0000600018UL, 0x0000000100000060UL,
  0x0000002400000000UL, 0x300c004200100000UL, 0x0000000700000006UL, 0x00000001300d0043UL,
  0x301100433428803fUL, 0x0000000000000000UL, 0x18007c0000802021UL, 0x1802012300080004UL,
  0x0020002034270030UL, 0x00000c0000600018UL, 0x0000000100000060UL, 0x0000002400000000UL,
  0x180c004200100000UL, 0x0000000700000006UL, 0x00000001180d0043UL, 0x181100433428803fUL,
  0x0000000000000000UL, 0x24007c0000802081UL, 0x2402012300080004UL, 0x0020002034270048UL,
  0x00000c0000600018UL, 0x0000000100000060UL, 0x0000002400000000UL, 0x240c004200100000UL,
  0x0000000700000006UL, 0x00000001240d0043UL, 0x241100433428803fUL, 0x0000000000000000UL,
  0x20007c0000802061UL, 0x200200430008010cUL, 0x0000600034328000UL, 0x00000000200500c3UL,
  0x0000000000006000UL, 0x0000002400000000UL, 0x200c004200100000UL, 0x0000000700000006UL,
  0x00000001200d0043UL, 0x201100433432e03fUL, 0x0000000000000000UL, 0x0000002510057c00UL,
  0x0000000d100c0043UL, 0x100f012300000011UL, 0x0000001100000003UL, 0x000000090000001bUL,
  0x0000001700000011UL, 0x000000110000000fUL, 0x101e7c0000000015UL, 0x10007c0000000019UL,
  0x2000200100000001UL, 0x001000353c007c00UL, 0x0010002140007c00UL, 0x0010002144007c00UL,
  0x0010002148007c00UL, 0x180020015c002001UL, 0x2c00200124002001UL, 0x3400200130002001UL,
  0x0000006420007fe4UL, 0x10007c0000000000UL, 0x1000042400000002UL, 0x0000000000000064UL,
  0x4000000010007c00UL, 0x0000006410007bc4UL, 0x10057c0000000000UL, 0x100c004300000000UL,
  0x0000000000000000UL, 0x00000000100f0123UL, 0x0000000000000000UL, 0x0000000000000000UL,
  0x0000000000000000UL, 0x0000000000000000UL, 0x00000000101e7c00UL, 0x0000000220007c00UL,
  0x0000006420000424UL, 0x20007c0000000000UL, 0x20007bc440000000UL, 0x0000000000000064UL,
  0x3c007c0000800061UL, 0x3c00042400000002UL, 0x0000000000000064UL, 0x400000003c007c00UL,
  0x000000643c007bc4UL, 0x0080014100000000UL, 0x0000000240007c00UL, 0x0000006440000424UL,
  0x40007c0000000000UL, 0x40007bc440000000UL, 0x0000000000000064UL, 0x44007c0000800161UL,
  0x4400042400000002UL, 0x0000000000000064UL, 0x4000000044007c00UL, 0x0000006444007bc4UL,
  0x0080018100000000UL, 0x0000000248007c00UL, 0x0000006448000424UL, 0x48007c0000000000UL,
  0x48007bc440000000UL, 0x0000000000000064UL, 0x5c007c00008001a1UL, 0x5c00042408000002UL,
  0x0000000000000064UL, 0x480000005c007c00UL, 0x000000645c007bc4UL, 0x0080024100000000UL,
  0x0000000218007c00UL, 0x0000006418000424UL, 0x18007c0000000000UL, 0x18007bc440000000UL,
  0x0000000000000064UL, 0x24007c0000800021UL, 0x2400042400000002UL, 0x0000000000000064UL,
  0x4000000024007c00UL, 0x0000006424007bc4UL, 0x0080008100000000UL, 0x000000022c007c00UL,
  0x000000642c000424UL, 0x2c007c0000000000UL, 0x2c007bc440000000UL, 0x0000000000000064UL,
  0x30007c00008000c1UL, 0x3000042400000002UL, 0x0000000000000064UL, 0x4000000030007c00UL,
  0x0000006430007bc4UL, 0x008000e100000000UL, 0x0000000234007c00UL, 0x0000006434000424UL,
  0x34007c0000000000UL, 0x34007bc440000000UL, 0x0000000000000064UL, 0x0000015d00800101UL,
  0x3c007c0000802141UL, 0x3c0200e300000054UL, 0x0000110018180101UL, 0x0020030010a34202UL,
  0x001f000002ff0000UL, 0x3c0a7c0000000001UL, 0x3c0c004300000000UL, 0x0000000000000013UL,
  0x68000042008022a1UL, 0x156000fc08000000UL, 0x0009000068020123UL, 0x0000001700000000UL,
  0x00023fff00005fffUL, 0x0000000000000000UL, 0x0000000105c403e9UL, 0x00000000680c0043UL,
  0x680b7c0020422042UL, 0x6900240300000001UL, 0x00004cc7ff340e29UL, 0x0000f0deffcd313eUL,
  0x0000007eff8a1ad2UL, 0x000097e4febb1e6aUL, 0x00005144fe3f0c66UL, 0x00004fbffefc0a51UL,
  0x000062f5ff0f2652UL, 0x0000b9b1ff9a276aUL, 0x00003f2dfdb527b4UL, 0x0000fa6cfe9331e1UL,
  0x0000ebe0ff053485UL, 0x00000b5aff800d41UL, 0x000008fffd3126bfUL, 0x0000b4b2ff960a0aUL,
  0x0000d867ff630e9fUL, 0x0000bac3fefc2094UL, 0x000051d2fe3c21a9UL, 0x0000d64ffd711e59UL,
  0x0000da5bfdc94202UL, 0x000058beff4339cbUL, 0x0000a715ff830c63UL, 0x0000de4bfed21944UL,
  0x00002bc100a71154UL, 0x00006214fdf119e5UL, 0x0000af3cfd5c1653UL, 0x000076f5fe911229UL,
  0x00007995fe47210fUL, 0x00006ce2ff6e120bUL, 0x00005a51ff8f0ab1UL, 0x000058b0fecf0cfdUL,
  0x0000b538fea46045UL, 0x00006fa6fdda24e1UL, 0x0000175bfd3e35c8UL, 0x000049b300a7232cUL,
  0x00002c99fd7f36c3UL, 0x0000a6cefde72753UL, 0x00001604fde513a1UL, 0x00004210fe172051UL,
  0x00008f6cfc482c58UL, 0x0000fdd9fe0424c6UL, 0x0000809dfe5816ddUL, 0x00001f61fda73731UL,
  0x0000f3a2ff2e1148UL, 0x0000033cfd6a37cfUL, 0x00009d0efea0122aUL, 0x00002dd7ff0c1365UL,
  0x0000b7c3feec127bUL, 0x00006837fe291420UL, 0x00007afafe1b2322UL, 0x0000e703febc29b3UL,
  0x00006532ffc335f9UL, 0x0000629ffedf330fUL, 0x00007234fd9f23c9UL, 0x0000c44bff1e0eedUL,
  0x00003cb4feb21012UL, 0x00008c0efe7430dfUL, 0x0000f63ffd8a457aUL, 0x0000fa00ff553312UL,
  0x0000879effc70db4UL, 0x0000afafff4512c1UL, 0x0000ac4bfef01c7aUL, 0x000012dbfec910c1UL,
  0x00005586feee1adcUL, 0x00005a11feea1f69UL, 0x0000bb90fdb62e00UL, 0x000061f6feca0f2bUL,
  0x00004e6cfed20df4UL, 0x0000df47ff741595UL, 0x0000a932ff310f32UL, 0x0000ac4fff1b0bdcUL,
  0x00009fd5feda1403UL, 0x00006211fe0e66ffUL, 0x00002fabff1f2287UL, 0x00000757ffbf06e3UL,
  0x00001c96fd3e1f42UL, 0x00009f8000340a79UL, 0x000038d1feda148fUL, 0x0000c140ff0b09e7UL,
  0x00009e8dfeda15f4UL, 0x000018d7fee610bbUL, 0x00006257ff5f1ee3UL, 0x0000a7e8fe1231e1UL,
  0x00000268fd052bb6UL, 0x0000aad5fe7025f3UL, 0x0000a198fe6b2597UL, 0x0000cc8cfe5a16b7UL,
  0x00002b03fefc1337UL, 0x0000bbc7ff500a4dUL, 0x0000e757feec20ccUL, 0x00001cc7fecc100aUL,
  0x00001dcbfef7203dUL, 0x00008ba5feaf1312UL, 0x0000e8f3feaf13b1UL, 0x00006b5bfdb44a90UL,
  0x00002958ff6f2563UL, 0x0000f375ff290addUL, 0x00002158fd4c1d6aUL, 0x00000be801fc0407UL,
  0x0000273300452ef4UL, 0x000011d9ff4742c5UL, 0x00006fb1ff7c0aabUL, 0x000098b8fdf815b9UL,
  0x000072c3fe491a3cUL, 0x000018dffde42e89UL, 0x0000c43bfff00f20UL, 0x0000b31cfe761cf6UL,
  0x0000db77ffe70d0fUL, 0x00002760fe5c1599UL, 0x000047e8ff120bfeUL, 0x0000ab93fed31eb9UL,
  0x0000e286fec51e06UL, 0x00002eb0fd4b167fUL, 0x00004b1dfc9c2706UL, 0x0000cd6cfd713366UL,
  0x0000d718ff310fbfUL, 0x0000d58eff644e72UL, 0x000034d4ff7526b0UL, 0x0000dbd8fe061c35UL,
  0x00003d5fff792882UL, 0x0000050bff2d1c65UL, 0x00000f64fddb1e3dUL, 0x000095f9ff0330e8UL,
  0x000002b1fdc3306aUL, 0x0000414efcd01bb5UL, 0x00000859fd8d2723UL, 0x0000052ffd2f2e78UL,
  0x0000eaecfe80153aUL, 0x0000246afd9b1f1cUL, 0x00006658fed10d62UL, 0x0000c2a4fee817aeUL,
  0x0000ad2ffff36f04UL, 0x0000f268ffe44f2dUL, 0x0000a539ff44264fUL, 0x000092d0fe202657UL,
  0x00000badff111f3cUL, 0x00006147ff46181eUL, 0x0000724bfe232009UL, 0x000081b5fefe149bUL,
  0x00006fc2ff4d257fUL, 0x0000b50dfcea1848UL, 0x00004d14fff92272UL, 0x0000257bfebf11f4UL,
  0x0000a691ff261ffcUL, 0x000070dbff1f3797UL, 0x6000004200802261UL, 0x1500000008000000UL,
  0x0007000060027c00UL, 0x0000400060070043UL, 0x600c004300000020UL, 0x1041104100000000UL,
  0x14007c0000802001UL, 0x140200430008c100UL, 0x0000600034328000UL, 0x00000000140500c3UL,
  0x0000000100006000UL, 0x0000002400000000UL, 0x140c004200100000UL, 0x0000000700000006UL,
  0x00000006140d0043UL, 0x141100433432e03fUL, 0x0000000000000000UL, 0x28007c00008020a1UL,
  0x280200430008c184UL, 0x00000d8071256cb0UL, 0x00000000280500c3UL, 0x0000000000000000UL,
  0x0000002400000000UL, 0x280c004200100000UL, 0x0000000700000006UL, 0x00000001280d0043UL,
  0x2811004371257a6fUL, 0x0000000800000000UL, 0x2c007c00008020c1UL, 0x2c02012300080008UL,
  0x0020002034304000UL, 0x0000120000900018UL, 0x0000000600000018UL, 0x0000002400024000UL,
  0x2c0c004200100000UL, 0x0000000700000006UL, 0x000000062c0d0043UL, 0x2c1100433432803fUL,
  0x0000000000000000UL, 0x0000002710087c00UL, 0x00000001100c0043UL, 0x10207c000000000bUL,
  0x10247c000000002bUL, 0x10007c0000000015UL, 0x2c00200100000001UL, 0x000000553c007c00UL,
  0x6800200160002001UL, 0x2800200114002001UL, 0x000000642c007fe4UL, 0x10007c0000000000UL,
  0x1000042400000002UL, 0x0000000000000064UL, 0x4000000010007c00UL, 0x0000006410007bc4UL,
  0x10087c0000000000UL, 0x100c004300000000UL, 0x0000000000000000UL, 0x0000000010207c00UL,
  0x0000000010247c00UL, 0x000000022c007c00UL, 0x000000642c000424UL, 0x2c007c0000000000UL,
  0x2c007bc440000000UL, 0x0000000000000064UL, 0x3c007c00008000c1UL, 0x3c00042400000002UL,
  0x0000000000000064UL, 0x400000003c007c00UL, 0x000000643c007bc4UL, 0x0080014100000000UL,
  0x0800000260007c00UL, 0x0000006460000424UL, 0x60007c0000000000UL, 0x60007bc448000000UL,
  0x0000000000000064UL, 0x68007c0000800261UL, 0x6800042408000002UL, 0x0000000000000064UL,
  0x4800000068007c00UL, 0x0000006468007bc4UL, 0x008002a100000000UL, 0x0000000214007c00UL,
  0x0000006414000424UL, 0x14007c0000000000UL, 0x14007bc440000000UL, 0x0000000000000064UL,
  0x28007c0000800001UL, 0x2800042400000002UL, 0x0000000000000064UL, 0x4000000028007c00UL,
  0x0000006428007bc4UL, 0x008000a100000000UL, 0x008021610000017dUL, 0x0010003440007c00UL,
  0x01010303400200e3UL, 0x1063430300001155UL, 0x001f000000200020UL, 0x00000001001f0000UL,
  0x00000000400a7c00UL, 0x00000000400d7c00UL, 0x6400004200802281UL, 0x156000fc08000000UL,
  0x0008000064020123UL, 0x0000000000000000UL, 0x00023fff000003ffUL, 0x0000000000000000UL,
  0x0000000105c40200UL, 0x00000000640c0043UL, 0x640b7c0020422042UL, 0x6500240300000001UL,
  0x00009028ff790e40UL, 0x0000f289000a04b1UL, 0x00008162ffd813d5UL, 0x0000883eff600accUL,
  0x0000795cff6421ccUL, 0x00005911ff891c32UL, 0x0000c525ff780764UL, 0x0000f53bff7408a3UL,
  0x0000360d000c092eUL, 0x000031c8ff500aacUL, 0x000022e3ffbe040fUL, 0x0000d172ff7118eeUL,
  0x00001856ff962127UL, 0x00003bdaff601703UL, 0x00002ef0fff21edcUL, 0x00001cd4ffa91334UL,
  0x00001c96ffd9090eUL, 0x000027faff6e0febUL, 0x00001de6ffca14adUL, 0x000024f4ffc70bbfUL,
  0x0000de47ff491855UL, 0x00004054ff881123UL, 0x00002b6affd1136dUL, 0x00005ae7ff1b1791UL,
  0x0000ceb2ff9f1e3aUL, 0x0000e2adff820e23UL, 0x000086e1ff8a07a2UL, 0x0000095b005314deUL,
  0x0000bcaaff7517abUL, 0x000008dfff890ce9UL, 0x0000874eff6f0ec8UL, 0x0000569d00070806UL,
  0x00003a0bffbc04feUL, 0x0000d914ff840eccUL, 0x00004f9affa10396UL, 0x00007037ffa20393UL,
  0x00002c39ffbc03a7UL, 0x000086a9ffb50abbUL, 0x0000addc000e2648UL, 0x000085c5ff601a22UL,
  0x00005e9bffee090cUL, 0x0000d049ff042054UL, 0x0000261dffc62d73UL, 0x00008c6dff9a1024UL,
  0x000007a8ff820e56UL, 0x0000ca4bffc61d15UL, 0x0000e748ff6f0c39UL, 0x00005215ff652016UL,
  0x00006f51fff50733UL, 0x00006392ff7f0866UL, 0x00007035ff84063eUL, 0x0000e2beffb10558UL,
  0x000012fdffc3099cUL, 0x000053d6000e16c8UL, 0x0000a43fff7c0cc3UL, 0x0000f6b4ff7f094bUL,
  0x000020e0ff990a75UL, 0x00003984ff8908deUL, 0x000057f8ff792e0eUL, 0x0000fc14ff8b0e2cUL,
  0x0000086eff5d05bbUL, 0x00004df7ff9814e6UL, 0x0000deacff8f08c1UL, 0x0000b0c8ffa503adUL,
  0x00008980fff2090dUL, 0x000027e8ff801fedUL, 0x00004f5fff810bd2UL, 0x0000b66f00251048UL,
  0x000059cbff7518d7UL, 0x0000239bffe8259fUL, 0x0000d6a3000613f5UL, 0x000031ebffe20aeeUL,
  0x00001ca4ff8a120eUL, 0x0000dc3fffa34801UL, 0x00005b58ffe4092fUL, 0x0000127eff781ab4UL,
  0x00007f3dffee06e1UL, 0x00008ed0ff851e08UL, 0x0000f732ff830a1aUL, 0x00008e79ff2b09ecUL,
  0x00009b44ffa12007UL, 0x00008e8fffb50f7fUL, 0x00009bb0ff5825b3UL, 0x00004964ff790a05UL,
  0x00005562000506e5UL, 0x0000b500ffb41644UL, 0x00003b2bff830c6aUL, 0x00003b11ff801180UL,
  0x00002a8cff8315fbUL, 0x0000a1dbff8b0dcdUL, 0x00001257ff8310e9UL, 0x0000df8dff7f0f45UL,
  0x0000999c00131590UL, 0x0000e2d300250ae4UL, 0x00007b44ff810615UL, 0x0000c01eff8013b4UL,
  0x0000e4efff7f10a8UL, 0x0000f4800296126aUL, 0x00000857ff8e05b1UL, 0x00001009ffc104a2UL,
  0x00002cdf004a11edUL, 0x00004babff880aaeUL, 0x000010f1ff8d0a3fUL, 0x00002c62ffa60280UL,
  0x000048d1ff871b86UL, 0x00003f9bffb514d2UL, 0x00004fd5ff7911a1UL, 0x00005a2dffb10d9fUL,
  0x0000285aff8317c6UL, 0x000016cfff781391UL, 0x0000fa33ff8e0b00UL, 0x000045e5ffb10ddeUL,
  0x0000a734ff882384UL, 0x000020d2ff9b081cUL, 0x00000938ffba1b94UL, 0x00002d0cff840cf0UL,
  0x0000331eff7807faUL, 0x0000a410ff7e0ef7UL, 0x00008829ff7f0921UL, 0x00007cb4fefa0e66UL,
  0x0000d870ff75095bUL, 0x0000ce28ff810488UL, 0x0000ab9700172ef9UL, 0x0000f634ff7f272fUL,
  0x0000e2e9ff75188bUL, 0x0000b62fff740ab5UL, 0x0000192dff8a2e2aUL, 0x0000984100150908UL,
  0x0000367cff15147cUL, 0x0000d49cff1b0be6UL, 0x0000967dff800d60UL, 0x0000e879ff810728UL,
  0x0000581cff860a4aUL, 0x00001178fefe2660UL, 0x0000c0b0ff0d0e38UL, 0x0000abdfff8d11bbUL,
  0x00000ae5ffda07b9UL, 0x0000de1ffff80fafUL, 0x00008f0dff820ac3UL, 0x00009409ff285404UL,
  0x00008502008118c4UL, 0x00003dbfff820ce5UL, 0x00001d07ffbc24f3UL, 0x00009303ff8e0940UL,
  0x5c00004200802241UL, 0x1500000008000000UL, 0x000700005c027c00UL, 0x000040005c070043UL,
  0x5c0c004300000020UL, 0x1041104100000000UL, 0x30007c00008020e1UL, 0x3002012300080000UL,
  0x0020002034304000UL, 0x0000120000900001UL, 0x0000000100000000UL, 0x0000002400000001UL,
  0x300c004200100000UL, 0x0000000700000006UL, 0x00000090300d0043UL, 0x301100433432803fUL,
  0x0000000000000000UL, 0x24007c0000802081UL, 0x2402004300080184UL, 0x0000051071261020UL,
  0x00000000240500c3UL, 0x0000000000000000UL, 0x0000002400000000UL, 0x240c004200100000UL,
  0x0000000700000006UL, 0x00000001240d0043UL, 0x241100437126156fUL, 0x0000000800000000UL,
  0x14007c0000802001UL, 0x1402012300080008UL, 0x00200020342e0000UL, 0x0000120000900001UL,
  0x0000009000000001UL, 0x0000002400024000UL, 0x140c004200100000UL, 0x0000000700000006UL,
  0x00000090140d0043UL, 0x141100433430403fUL, 0x0000000000000000UL, 0x0000002510027c00UL,
  0x0000000f100f0043UL, 0x101e7c0000000009UL, 0x10227c0000000029UL, 0x10007c0000000017UL,
  0x1400200100000001UL, 0x0010003540007c00UL, 0x640020015c002001UL, 0x3000200124002001UL,
  0x0000006414007fe4UL, 0x10007c0000000000UL, 0x1000042400000002UL, 0x0000000000000064UL,
  0x4000000010007c00UL, 0x0000006410007bc4UL, 0x10027c0000000000UL, 0x100f004300000000UL,
  0x0000000000000000UL, 0x00000000101e7c00UL, 0x0000000010227c00UL, 0x0000000214007c00UL,
  0x0000006414000424UL, 0x14007c0000000000UL, 0x14007bc440000000UL, 0x0000000000000064UL,
  0x40007c0000800001UL, 0x4000042400000002UL, 0x0000000000000064UL, 0x4000000040007c00UL,
  0x0000006440007bc4UL, 0x0080016100000000UL, 0x080000025c007c00UL, 0x000000645c000424UL,
  0x5c007c0000000000UL, 0x5c007bc448000000UL, 0x0000000000000064UL, 0x64007c0000800241UL,
  0x6400042408000002UL, 0x0000000000000064UL, 0x4800000064007c00UL, 0x0000006464007bc4UL,
  0x0080028100000000UL, 0x0000000224007c00UL, 0x0000006424000424UL, 0x24007c0000000000UL,
  0x24007bc440000000UL, 0x0000000000000064UL, 0x30007c0000800081UL, 0x3000042400000002UL,
  0x0000000000000064UL, 0x4000000030007c00UL, 0x0000006430007bc4UL, 0x008000e100000000UL,
  0x008021810000019dUL, 0x10d0003444007c00UL, 0x18480101440200e3UL, 0x1077400500001100UL,
  0x08ff000000200900UL, 0x00170030001f0000UL, 0x00000000440a7c00UL, 0x00000000440d7c00UL,
  0x48007c00008021a1UL, 0x480200e310d00020UL, 0x0000110018480101UL, 0x0020090010634500UL,
  0x001f000008ff0000UL, 0x480a7c00002f1830UL, 0x480d7c0000000000UL, 0x0080226100000000UL,
  0x0800000060000042UL, 0x60020123156000fcUL, 0x0000000000090000UL, 0x00005fff00000017UL,
  0x0000000000005fffUL, 0x07a403e900000000UL, 0x600c004300000001UL, 0x2042204200000000UL,
  0x00000001600b7c00UL, 0x001412e661000603UL, 0xff6a277000004080UL, 0xffd71bd30000f593UL,
  0xff36342c00007207UL, 0x005641770000e245UL, 0x00f73b850000c5baUL, 0x00a5197b00006199UL,
  0xffc469cd00007457UL, 0xffee648e0000a395UL, 0x0035222e00005c33UL, 0x01094c86000043feUL,
  0x00041eab0000ccf8UL, 0x00d51f5900003f43UL, 0xff7540000000e4fdUL, 0xffcc1dd900000fe9UL,
  0x00db42a60000bd24UL, 0x002821960000a25cUL, 0x004b234e0000235fUL, 0xff9522c20000b385UL,
  0xff5a20d70000d5bdUL, 0xffaf47e500006e7bUL, 0x009631be00001ab1UL, 0x001a3cd500002419UL,
  0x0000166200009441UL, 0x008022a10000f540UL, 0x0800000068000042UL, 0x68027c0005000160UL,
  0x6807004300070c02UL, 0x00004000bf7e6ca5UL, 0x00000000680c0043UL, 0x008020a110411041UL,
  0x0888020428007c00UL, 0x342e000028020123UL, 0x0090001800200020UL, 0x0000000000001200UL,
  0x0000009000000001UL, 0x0010000000000024UL, 0x00000006280c0042UL, 0x280d004300000007UL,
  0x3430403f00000001UL, 0x0000000028110043UL, 0x0080206100000000UL, 0x0888018420007c00UL,
  0x71257a3020020043UL, 0x200500c300000480UL, 0x0000000000000000UL, 0x0000000000000000UL,
  0x0010000000000024UL, 0x00000006200c0042UL, 0x200d004300000007UL, 0x712587ef00000001UL,
  0x0000000020110043UL, 0x0080208100000008UL, 0x0888020424007c00UL, 0x342e004824020123UL,
  0x0090001800200020UL, 0x0000000000001200UL, 0x0000009000000001UL, 0x0010000000000024UL,
  0x00000006240c0042UL, 0x240d004300000007UL, 0x3430403f00000001UL, 0x0000000024110043UL,
  0x0080200100000000UL, 0x0008010414007c00UL, 0x3432800014020043UL, 0x140500c300006000UL,
  0x0000600000000000UL, 0x0000000000000000UL, 0x0010000000000024UL, 0x00000006140c0042UL,
  0x140d004300000007UL, 0x3432e03f00000001UL, 0x0000000014110043UL, 0x008020e100000000UL,
  0x0008010c30007c00UL, 0x3430400030020043UL, 0x300500c300006000UL, 0x0000600000000000UL,
  0x0000000000000000UL, 0x0010000000000024UL, 0x00000006300c0042UL, 0x300d004300000007UL,
  0x3430a03f00000001UL, 0x0000000030110043UL, 0x10097c0000000000UL, 0x101200430000002bUL,
  0x000000070000000bUL, 0x0000000910150063UL, 0x0000001900000007UL, 0x0000001b10207c00UL,
  0x0000000110240043UL, 0x10007c0000000027UL, 0x3000200100000001UL, 0x10d0003544007c00UL,
  0x10d0002148007c00UL, 0x6800200160002001UL, 0x2000200114002001UL, 0x2800200124002001UL,
  0x0000006430007fe4UL, 0x10007c0000000000UL, 0x1000042400000002UL, 0x0000000000000064UL,
  0x4000000010007c00UL, 0x0000006410007bc4UL, 0x10097c0000000000UL, 0x1012004300000000UL,
  0x0000000000000000UL, 0x0000000010150063UL, 0x0000000000000000UL, 0x0000000010207c00UL,
  0x0000000010240043UL, 0x30007c0000000000UL, 0x3000042400000002UL, 0x0000000000000064UL,
  0x4000000030007c00UL, 0x0000006430007bc4UL, 0x008000e100000000UL, 0x0000000244007c00UL,
  0x0000006444000424UL, 0x44007c0000000000UL, 0x44007bc440000000UL, 0x0000000000000064UL,
  0x48007c0000800181UL, 0x4800042400000002UL, 0x0000000000000064UL, 0x4000000048007c00UL,
  0x0000006448007bc4UL, 0x008001a100000000UL, 0x0800000260007c00UL, 0x0000006460000424UL,
  0x60007c0000000000UL, 0x60007bc448000000UL, 0x0000000000000064UL, 0x68007c0000800261UL,
  0x6800042408000002UL, 0x0000000000000064UL, 0x4800000068007c00UL, 0x0000006468007bc4UL,
  0x008002a100000000UL, 0x0000000214007c00UL, 0x0000006414000424UL, 0x14007c0000000000UL,
  0x14007bc440000000UL, 0x0000000000000064UL, 0x20007c0000800001UL, 0x2000042400000002UL,
  0x0000000000000064UL, 0x4000000020007c00UL, 0x0000006420007bc4UL, 0x0080006100000000UL,
  0x0000000224007c00UL, 0x0000006424000424UL, 0x24007c0000000000UL, 0x24007bc440000000UL,
  0x0000000000000064UL, 0x28007c0000800081UL, 0x2800042400000002UL, 0x0000000000000064UL,
  0x4000000028007c00UL, 0x0000006428007bc4UL, 0x008000a100000000UL, 0x00802141000001bdUL,
  0x000000543c007c00UL, 0x181801013c0200e3UL, 0x10a3430300001100UL, 0x02ff000000200300UL,
  0x00000001001f0000UL, 0x000000003c0a7c00UL, 0x000000083c0c0043UL, 0x0080224100000000UL,
  0x080000005c000042UL, 0x5c020123156000fcUL, 0x0000000000080000UL, 0x00005fff00000017UL,
  0x0000000000023fffUL, 0x05c403e900000000UL, 0x5c0c004300000001UL, 0x2042204200000000UL,
  0x000000015c0b7c00UL, 0xff92144c5d002403UL, 0xff78177500006792UL, 0xff3923040000ab71UL,
  0xff4926810000c827UL, 0xff910afd00006275UL, 0xff86127b00003214UL, 0xff7822650000a6a6UL,
  0xff620d860000ba5cUL, 0xff60146f00007508UL, 0xffc612b60000f3efUL, 0xff9d43610000adf8UL,
  0xff3715430000f8e6UL, 0xffae3e6f0000300bUL, 0xff731a8000003719UL, 0xffd10662000030b1UL,
  0xff7c18f200005efaUL, 0xff991df80000e1c1UL, 0xff0724f10000aa7dUL, 0xff701e5000003bc5UL,
  0xffaa20e700003ce7UL, 0x002956a50000e4c9UL, 0xffce13dd0000d180UL, 0xff450dab0000ea31UL,
  0xff90336600004fd2UL, 0xff7d181f0000a9f0UL, 0xff7a10180000569aUL, 0xff580f370000ca3aUL,
  0xff2622b800000cddUL, 0xffd304fe000040d0UL, 0xff49104b00003f49UL, 0xff5f153900004f41UL,
  0xff8f185b0000e231UL, 0xff7e1ba500004847UL, 0xff3d2b1000003462UL, 0xff7d2ee40000082aUL,
  0xff7b2ca9000086f3UL, 0xffbb09a80000d020UL, 0xffd30c330000d7a6UL, 0xffb70f380000c8bcUL,
  0xff8614dd00009bcdUL, 0xffe015470000052dUL, 0xffcf49ad000046f2UL, 0xff0e13c40000403fUL,
  0xff672ee30000ef09UL, 0xff8f1c7f000080d8UL, 0xff771ea60000e73eUL, 0xff401c4f000059a7UL,
  0xff861d7300003f11UL, 0xff590af900008ae9UL, 0xff901c2d0000e782UL, 0xff2822be0000d34bUL,
  0xff4c0b8500001883UL, 0xff7d358a0000a6c5UL, 0xff760fbd0000b314UL, 0xffc91fa1000013f5UL,
  0xff3219a200002c79UL, 0xff850ca400000436UL, 0xff6511b90000c57dUL, 0xff850ff800004dd3UL,
  0xff8410120000935dUL, 0xff7031e40000af4cUL, 0xff7d17980000628eUL, 0xffad1d79000059a4UL,
  0xffdc0e460000423fUL, 0xff730ef200006880UL, 0xff780c2100005ea1UL, 0xffb40f120000d6f3UL,
  0xff1a1dac0000f08aUL, 0xffa10c89000051a2UL, 0x0035238200007e50UL, 0x00133d1800003965UL,
  0xffce063e00002f62UL, 0xff78262c0000fb80UL, 0xffd509580000f92eUL, 0xff6a172300009896UL,
  0xffc93e1c00005da2UL, 0xff870ef400005cd7UL, 0xff3a204f000005ecUL, 0xffae174f00002c75UL,
  0xff3d233300004c02UL, 0xffe108270000b55bUL, 0xff7c1b980000c638UL, 0xff76176a0000d1efUL,
  0xffa3098b0000196dUL, 0x00241ba30000c613UL, 0xff690ed7000002f3UL, 0xff883d3c000076a1UL,
  0xff881d140000ca4dUL, 0xffb20b6b00000cf8UL, 0xffa608950000cd22UL, 0xff68105b0000927bUL,
  0xffbe17340000280aUL, 0xff7b2de70000e522UL, 0xff5a27a500006d81UL, 0xffbb0a600000f86bUL,
  0xff54132c0000f4adUL, 0xff571b8c00007009UL, 0x00392aba0000ad1cUL, 0xff4014f200006c6aUL,
  0xff9512a300007e3eUL, 0xff8251ea0000b3a6UL, 0xffd3366a00001eaeUL, 0xfff231e700005febUL,
  0xff5c15c500005afdUL, 0xff8b0cb70000d8dfUL, 0xff8f1a770000a3deUL, 0xff8209d000002f31UL,
  0xff5113b40000292cUL, 0xff681c2800003865UL, 0xffaa2ceb00003091UL, 0xffab31a00000fcacUL,
  0xffdc1aa3000052e2UL, 0xff5015710000b663UL, 0xff8121c800006efeUL, 0xff3715a40000fab8UL,
  0xff871bdb0000d909UL, 0xff7c18d2000031ffUL, 0xff7e11dd00007c35UL, 0xffc4446400001041UL,
  0x0058280c0000dc0aUL, 0xff9d0f170000a836UL, 0xffaf0c2300000735UL, 0xffe9343d0000b280UL,
  0xff7216db0000e6a8UL, 0xff7814a30000963cUL, 0xffb01ea50000c12eUL, 0xff8e0b9a00007ad2UL,
  0xff991dc40000b4eaUL, 0xff801b930000e9bdUL, 0xffdf0a59000082fcUL, 0xff7216470000b0e6UL,
  0xff540eb8000010a0UL, 0xff74157d000048d8UL, 0xff9f111200005ceeUL, 0xffb50f7400003921UL,
  0xff6f0ca700005c20UL, 0xffb6481a00003904UL, 0xff77311d0000a3a2UL, 0xff8828620000b3eaUL,
  0xff4611d90000a7f3UL, 0xff980f200000493fUL, 0xffbe20d4000088a2UL, 0xff6e18c700002162UL,
  0xff9b1e7000007247UL, 0x00802281000039e4UL, 0x0800000064000042UL, 0x64027c0015000000UL,
  0x6407004300070000UL, 0x0000002000004000UL, 0x00000000640c0043UL, 0x0080206110411041UL,
  0x0008c10020007c00UL, 0x3430400020020043UL, 0x200500c300006000UL, 0x0000600000000000UL,
  0x0000000000000001UL, 0x0010000000000024UL, 0x00000006200c0042UL, 0x200d004300000007UL,
  0x3430a03f00000006UL, 0x0000000020110043UL, 0x0080210100000000UL, 0x0008c18434007c00UL,
  0x712587b034020043UL, 0x340500c300000d80UL, 0x0000000000000000UL, 0x0000000000000000UL,
  0x0010000000000024UL, 0x00000006340c0042UL, 0x340d004300000007UL, 0x7125956f00000001UL,
  0x0000000034110043UL, 0x008020c100000008UL, 0x000800082c007c00UL, 0x342e00002c020123UL,
  0x0090001800200020UL, 0x0000001800001200UL, 0x0002400000000006UL, 0x0010000000000024UL,
  0x000000062c0c0042UL, 0x2c0d004300000007UL, 0x3430403f00000006UL, 0x000000002c110043UL,
  0x10087c0000000000UL, 0x100c004300000029UL, 0x0000001100000007UL, 0x00000015101e7c00UL,
  0x0000002510227c00UL, 0x0000000110007c00UL, 0x3c007c002c002001UL, 0x5c00200100000055UL,
  0x2000200164002001UL, 0x2c007fe434002001UL, 0x0000000000000064UL, 0x0000000210007c00UL,
  0x0000006410000424UL, 0x10007c0000000000UL, 0x10007bc440000000UL, 0x0000000000000064UL,
  0x0000000010087c00UL, 0x00000000100c0043UL, 0x101e7c0000000000UL, 0x10227c0000000000UL,
  0x2c007c0000000000UL, 0x2c00042400000002UL, 0x0000000000000064UL, 0x400000002c007c00UL,
  0x000000642c007bc4UL, 0x008000c100000000UL, 0x000000023c007c00UL, 0x000000643c000424UL,
  0x3c007c0000000000UL, 0x3c007bc440000000UL, 0x0000000000000064UL, 0x5c007c0000800141UL,
  0x5c00042408000002UL, 0x0000000000000064UL, 0x480000005c007c00UL, 0x000000645c007bc4UL,
  0x0080024100000000UL, 0x0800000264007c00UL, 0x0000006464000424UL, 0x64007c0000000000UL,
  0x64007bc448000000UL, 0x0000000000000064UL, 0x20007c0000800281UL, 0x2000042400000002UL,
  0x0000000000000064UL, 0x4000000020007c00UL, 0x0000006420007bc4UL, 0x0080006100000000UL,
  0x0000000234007c00UL, 0x0000006434000424UL, 0x34007c0000000000UL, 0x34007bc440000000UL,
  0x0000000000000064UL, 0x000001dd00800101UL, 0x40007c0000802161UL, 0x400200e320100034UL,
  0x0000220002020303UL, 0x0020004010634303UL, 0x001f0000003f0000UL, 0x400a7c0000000001UL,
  0x400d7c0001000200UL, 0x0080226100000000UL, 0x0800000060000042UL, 0x60020123156000fcUL,
  0x0000000000088000UL, 0x000001ff00000001UL, 0x0000000000008fffUL, 0x05c403ff00000000UL,
  0x600c004300000001UL, 0x2042204200000000UL, 0x00000001600b7c00UL, 0xff410b0461002403UL,
  0xff040cde0000386cUL, 0xfefa10ea0000c33aUL, 0xffcd09660000ae45UL, 0xff0517ab0000b53eUL,
  0x00fd12080000a0baUL, 0xffab06be000035f4UL, 0xfeff0eab0000d1d8UL, 0xff0606c80000b127UL,
  0xfef117f400005edcUL, 0xffb605070000bde3UL, 0xfeff151b00006444UL, 0xff680b3b0000f572UL,
  0xff8f0cdb0000904dUL, 0xff0236ef00006d2aUL, 0xfefd0d2c0000fa2dUL, 0xff89067f0000defeUL,
  0xfeff4652000000d5UL, 0xfef90d7900008dbbUL, 0xffc90bfc0000e1e6UL, 0xfff0096700001128UL,
  0xff150de300006cc9UL, 0xff3117bb0000cdd8UL, 0xffa606980000f122UL, 0xffc008d000003a79UL,
  0xffb30d500000b723UL, 0x00f41b540000b2e8UL, 0xfefe14610000e3a2UL, 0xff2230a00000569eUL,
  0xff0014830000a3c5UL, 0x00ac0f0300000000UL, 0xffa40ba900007fe6UL, 0xff9807ee000074daUL,
  0xfefc0db0000079adUL, 0xffc6067c00000281UL, 0xff98092c00008ceeUL, 0xfe80102000006692UL,
  0x00b5127d0000ca4eUL, 0xff0b09c400006753UL, 0xff9508660000409bUL, 0x013d0c4800000742UL,
  0xff8508040000dc03UL, 0xfeff21400000be42UL, 0xff020ec40000d248UL, 0x00a50b820000fa50UL,
  0xff050d1e0000e2cfUL, 0xff4213ed0000b189UL, 0xff06098c0000d6f4UL, 0xfeff15a90000190aUL,
  0xff190d1d00009668UL, 0xff5517ef0000f48cUL, 0xff001a38000024d2UL, 0xfef6076000002754UL,
  0xfeff157d00003571UL, 0xfee2067000008f2dUL, 0xff8a0c9b0000bedeUL, 0x00fd15900000ebacUL,
  0xfeff0ccd0000193fUL, 0x00ef141b000034d0UL, 0xff04132300001b30UL, 0xfef80d170000de60UL,
  0xffa60fc200006b90UL, 0xffb008680000e939UL, 0xfee816d300007021UL, 0xfef9129100009649UL,
  0xff0612050000be7fUL, 0xfecf11400000c640UL, 0xff021d7200008556UL, 0xff051f3400001d0eUL,
  0x006d097a000016c7UL, 0xffa50a3000009cc1UL, 0x00312996000068b6UL, 0xffbb0743000081b3UL,
  0xfeea1bb000007869UL, 0x00e70b390000045aUL, 0xff8707d800007878UL, 0xfefb27cd0000ab5eUL,
  0xff120dc100004714UL, 0xfec925cc00005340UL, 0xfefb1112000042d9UL, 0xfe84248c0000e85dUL,
  0xfef70b9800003f08UL, 0xff830fb30000dd7fUL, 0xff081a0d00003aa3UL, 0xfef10e7b00006b9eUL,
  0xfeff1c2b00003ecbUL, 0xff85050900005a84UL, 0xff060a680000ae9aUL, 0xfec2172a000057a9UL,
  0xfef817d50000c03eUL, 0xff3613d600001f10UL, 0xff91083800005095UL, 0xff9012fb0000ba78UL,
  0xff280c0c0000b2d9UL, 0xff0c10e00000951eUL, 0x00a414030000fe6aUL, 0xff110cba0000cd01UL,
  0x009008dc00000365UL, 0xfefb14d300000927UL, 0xff0610020000cf9aUL, 0xff9905b600007ae4UL,
  0xffc0049700000a0cUL, 0xfffd09260000d5a7UL, 0xfeff115300002ca3UL, 0xff040fd600003f49UL,
  0xffb909a00000d519UL, 0x00860e5c000039ffUL, 0xff40168800003607UL, 0xff8f0c7a00000eb1UL,
  0xff0b055d000059a4UL, 0xff1403da0000d50bUL, 0xff070b470000852dUL, 0xffd8167c000056caUL,
  0xfeff0aec000007f9UL, 0xfeff2265000061a0UL, 0xff0b0a88000006a0UL, 0xff9509510000149bUL,
  0x00be0d4300000189UL, 0x008f050d0000712bUL, 0x01260adb00003462UL, 0xff9013630000a15fUL,
  0xfe60152800001d36UL, 0xff840887000024fdUL, 0x00fe10050000eb98UL, 0xff09104500007a54UL,
  0xffc1083c0000fe77UL, 0xff0016f000007c51UL, 0xfef2199f00009db1UL, 0xfe900b3600004399UL,
  0xffec16f400008d03UL, 0xff8a0c0c00007344UL, 0xff061c2500009fddUL, 0xffb70b7d00005ceaUL,
  0xffd10b9400006b79UL, 0x00f109f30000b515UL, 0xff00101f0000da6eUL, 0xff8508d800003667UL,
  0xff83083d00000e7cUL, 0x008a0b4c00003561UL, 0xff01115300006c1cUL, 0x007e0da20000cf60UL,
  0x00c606bb00007e6eUL, 0xff340e8500008bf5UL, 0x011507a300009e2cUL, 0x008022a10000909fUL,
  0x0800000068000042UL, 0x68027c0015000000UL, 0x6807004300070000UL, 0x0000002000004000UL,
  0x00000000680c0043UL, 0x0080200110411041UL, 0x0088020014007c00UL, 0x342e000014020123UL,
  0x0090000100200020UL, 0x0000000000001200UL, 0x0000000200000001UL, 0x0010000000000024UL,
  0x00000006140c0042UL, 0x140d004300000007UL, 0x3430403f00000048UL, 0x0000000014110043UL,
  0x0080212100000000UL, 0x0008018438007c00UL, 0x7125d8b038020043UL, 0x380500c300000a20UL,
  0x0000000000000000UL, 0x0000000000000000UL, 0x0010000000000024UL, 0x00000006380c0042UL,
  0x380d004300000007UL, 0x7125e30f00000001UL, 0x0000000038110043UL, 0x008020e100000008UL,
  0x0008000830007c00UL, 0x3430400030020123UL, 0x0090000200100010UL, 0x0000000200000900UL,
  0x0000900000000048UL, 0x0010000000000024UL, 0x00000006300c0042UL, 0x300d004300000007UL,
  0x3430d03f00000048UL, 0x0000000030110043UL, 0x10097c0000000000UL, 0x100f00430000002bUL,
  0x0000001300000001UL, 0x0000001710207c00UL, 0x0000002710247c00UL, 0x0000000110007c00UL,
  0x40007c0030002001UL, 0x6000200120100035UL, 0x1400200168002001UL, 0x30007fe438002001UL,
  0x0000000000000064UL, 0x0000000210007c00UL, 0x0000006410000424UL, 0x10007c0000000000UL,
  0x10007bc440000000UL, 0x0000000000000064UL, 0x0000000010097c00UL, 0x00000000100f0043UL,
  0x10207c0000000000UL, 0x10247c0000000000UL, 0x30007c0000000000UL, 0x3000042400000002UL,
  0x0000000000000064UL, 0x4000000030007c00UL, 0x0000006430007bc4UL, 0x008000e100000000UL,
  0x0000000240007c00UL, 0x0000006440000424UL, 0x40007c0000000000UL, 0x40007bc440000000UL,
  0x0000000000000064UL, 0x60007c0000800161UL, 0x6000042408000002UL, 0x0000000000000064UL,
  0x4800000060007c00UL, 0x0000006460007bc4UL, 0x0080026100000000UL, 0x0800000268007c00UL,
  0x0000006468000424UL, 0x68007c0000000000UL, 0x68007bc448000000UL, 0x0000000000000064UL,
  0x14007c00008002a1UL, 0x1400042400000002UL, 0x0000000000000064UL, 0x4000000014007c00UL,
  0x0000006414007bc4UL, 0x0080000100000000UL, 0x0000000238007c00UL, 0x0000006438000424UL,
  0x38007c0000000000UL, 0x38007bc440000000UL, 0x0000000000000064UL, 0x000001fd00800121UL,
  0x44007c0000802181UL, 0x440200e310d00034UL, 0x0000110010480101UL, 0x0010048010774004UL,
  0x000f0000047f0000UL, 0x440a7c00000f0020UL, 0x440d7c0000000000UL, 0x008021a100000000UL,
  0x10d0002048007c00UL, 0x10480101480200e3UL, 0x1063440000001100UL, 0x047f000000100480UL,
  0x001f1020000f0000UL, 0x00000000480a7c00UL, 0x00000000480d7c00UL, 0x5c00004200802241UL,
  0x156000fc08000000UL, 0x000980005c020123UL, 0x0000000f00000000UL, 0x00001fff00000fffUL,
  0x0000000000000000UL, 0x00000001078403f1UL, 0x000000005c0c0043UL, 0x5c0b7c0020422042UL,
  0x5d00080300000001UL, 0x0000e786ffe03e28UL, 0x00003dd0fe0434beUL, 0x00000da8fecf4738UL,
  0x00005c5b006d35aeUL, 0x000018de015c3b62UL, 0x0000cd0bffc432a8UL, 0x0000522000f758b8UL,
  0x00009a8e01312dffUL, 0x0000e68202c74d06UL, 0x00007155fe9e2f28UL, 0x00002f3c014f3872UL,
  0x00001e2afda642f0UL, 0x0000dd0503d1353fUL, 0x00009830ffa73458UL, 0x00002a43ff1836f0UL,
  0x0000043c00be4494UL, 0x0000cc7afcdf4024UL, 0x00007f0b00d03ff2UL, 0x0000814a00b22a13UL,
  0x0000a106fd9e2a3aUL, 0x0000cc9000393977UL, 0x0000d475fee025deUL, 0x0000c356000423bcUL,
  0x0000400aff032832UL, 0x00004a53003c3065UL, 0x00004a7bfdfb397dUL, 0x00000f8b00153b22UL,
  0x00005672fdda5423UL, 0x00003aa7fe182ee7UL, 0x0000a603ff932f99UL, 0x0000145fff3e334cUL,
  0x0000be6b027d3759UL, 0x1c007c0000802041UL, 0x1c02012308880200UL, 0x0010001034304000UL,
  0x0000090000900018UL, 0x0000000200000000UL, 0x0000002400000090UL, 0x1c0c004200100000UL,
  0x0000000700000006UL, 0x000000021c0d0043UL, 0x1c1100433430d03fUL, 0x0000000000000000UL,
  0x34007c0000802101UL, 0x3402004308880184UL, 0x00000600712536b0UL, 0x00000000340500c3UL,
  0x0000000000000000UL, 0x0000002400000000UL, 0x340c004200100000UL, 0x0000000700000006UL,
  0x00000001340d0043UL, 0x34110043712548efUL, 0x0000000800000000UL, 0x28007c00008020a1UL,
  0x2802012308880200UL, 0x0010001034304048UL, 0x0000090000900018UL, 0x0000000200000000UL,
  0x0000002400000090UL, 0x280c004200100000UL, 0x0000000700000006UL, 0x00000002280d0043UL,
  0x281100433430d03fUL, 0x0000000000000000UL, 0x14007c0000802001UL, 0x1402004300080108UL,
  0x00001000342f8000UL, 0x00000000140500c3UL, 0x0000000000001000UL, 0x0000002400000000UL,
  0x140c004200100000UL, 0x0000000700000006UL, 0x00000002140d0043UL, 0x14110043342fa03fUL,
  0x0000000000000000UL, 0x0000002510027c00UL, 0x0000000510120043UL, 0x1015006300000011UL,
  0x000000110000000bUL, 0x101e7c0000000019UL, 0x10007c000000001bUL, 0x1400200100000001UL,
  0x10d0003544007c00UL, 0x10d0002148007c00UL, 0x1c0020015c002001UL, 0x3400200128002001UL,
  0x0000006414007fe4UL, 0x10007c0000000000UL, 0x1000042400000002UL, 0x0000000000000064UL,
  0x4000000010007c00UL, 0x0000006410007bc4UL, 0x10027c0000000000UL, 0x1012004300000000UL,
  0x0000000000000000UL, 0x0000000010150063UL, 0x0000000000000000UL, 0x00000000101e7c00UL,
  0x0000000214007c00UL, 0x0000006414000424UL, 0x14007c0000000000UL, 0x14007bc440000000UL,
  0x0000000000000064UL, 0x44007c0000800001UL, 0x4400042400000002UL, 0x0000000000000064UL,
  0x4000000044007c00UL, 0x0000006444007bc4UL, 0x0080018100000000UL, 0x0000000248007c00UL,
  0x0000006448000424UL, 0x48007c0000000000UL, 0x48007bc440000000UL, 0x0000000000000064UL,
  0x5c007c00008001a1UL, 0x5c00042408000002UL, 0x0000000000000064UL, 0x480000005c007c00UL,
  0x000000645c007bc4UL, 0x0080024100000000UL, 0x000000021c007c00UL, 0x000000641c000424UL,
  0x1c007c0000000000UL, 0x1c007bc440000000UL, 0x0000000000000064UL, 0x28007c0000800041UL,
  0x2800042400000002UL, 0x0000000000000064UL, 0x4000000028007c00UL, 0x0000006428007bc4UL,
  0x008000a100000000UL, 0x0000000234007c00UL, 0x0000006434000424UL, 0x34007c0000000000UL,
  0x34007bc440000000UL, 0x0000000000000064UL, 0x0000021d00800101UL, 0x3c007c0000802141UL,
  0x3c0200e300000054UL, 0x0000110018100101UL, 0x0010010010b74003UL, 0x000f000000ff0000UL,
  0x3c0a7c0000170030UL, 0x3c0c004300000000UL, 0x0000000000ffffffUL, 0x40007c0000802161UL,
  0x400200e300000040UL, 0x0000110018100101UL, 0x0010010010a34300UL, 0x000f000000ff0000UL,
  0x400a7c00002f1830UL, 0x400c004300000000UL, 0x0000000000ffffffUL, 0x6400004200802281UL,
  0x156000fc08000000UL, 0x0008800064020123UL, 0x0000001700000000UL, 0x0000bfff000017ffUL,
  0x0000000000000000UL, 0x00000001050403e9UL, 0x00000000640c0043UL, 0x640b7c0020422042UL,
  0x6500300300000001UL, 0x000066f0ff780ac4UL, 0x0000e367ff5d1429UL, 0x00004231ff6d1457UL,
  0x00003cacff4a111cUL, 0x00003e78ff5c106aUL, 0x0000d5b8ff6e1323UL, 0x0000aa55ff491844UL,
  0x00001722ff6c0f2aUL, 0x00002729ff8a130eUL, 0x00005e5aff6f0ed3UL, 0x00004f0eff1a2901UL,
  0x0000d0f9fe7f1824UL, 0x00002cedff920f41UL, 0x00003bb1ff720a6dUL, 0x0000ba3eff6d0d02UL,
  0x0000a7a7ff701648UL, 0x00009fb7ff761165UL, 0x0000e2a6fe9a1c57UL, 0x00000b90ff5618b4UL,
  0x0000466aff6a1990UL, 0x0000191dff7f0db6UL, 0x00000695ff8b0a37UL, 0x00005e22ff4c17efUL,
  0x00004c67fee313a5UL, 0x00008e79ffab0b81UL, 0x0000bef1ff0b1fe7UL, 0x000035e0febe19adUL,
  0x0000c8f4ff022098UL, 0x00007860ff091a9bUL, 0x00006983fed916f2UL, 0x0000a5c6ff620ec3UL,
  0x00009ec8fef53135UL, 0x0000aa58fe8c1359UL, 0x0000f79cff2a13eaUL, 0x0000bd85ff840fabUL,
  0x000075c3ff251774UL, 0x000035c1ff67117cUL, 0x00007640ffb14107UL, 0x00004624ff880a81UL,
  0x0000dcb2feb619b1UL, 0x000022d0fe9e1316UL, 0x0000c468fe9e30bcUL, 0x0000e9dffee52ce5UL,
  0x0000de5eff5a11eaUL, 0x00007549ffb91665UL, 0x00000d99ff8a1641UL, 0x00006156ff541ad3UL,
  0x0000359bff711aa8UL, 0x0000582bff6f1066UL, 0x00006fc5fec7137bUL, 0x000052cfff88185bUL,
  0x0000b8deff630941UL, 0x00007647ff550d4cUL, 0x00007d3dff870b09UL, 0x00004148fee213edUL,
  0x000092bcff741370UL, 0x000007f1ff451308UL, 0x00001a2dff4314edUL, 0x00009cc4ff5113a4UL,
  0x00006d87fec922dcUL, 0x0000f3b0ff7c12b4UL, 0x0000a942ff681c85UL, 0x00000ff1ff082baeUL,
  0x000060d2ff3c1ab7UL, 0x00008fafff50144cUL, 0x0000372cff7e0ef8UL, 0x00008869ff8c104bUL,
  0x0000c2dcff921127UL, 0x000000f5ff511fdcUL, 0x000003e4ff870691UL, 0x00009b82fee0174dUL,
  0x00003aa1ff821233UL, 0x000002d7ff6e1072UL, 0x00004043ff520d23UL, 0x0000f335ff6e1576UL,
  0x000070ddff570ec6UL, 0x000093ebff5120d1UL, 0x00009a71ff721489UL, 0x00001816ff5313a8UL,
  0x0000a51efe9515d9UL, 0x00005d84fed2275aUL, 0x0000ea02fee31c16UL, 0x0000c5b9ff8914d0UL,
  0x00000722ff7e0771UL, 0x0000f3fdfead1e9aUL, 0x0000d358fee51327UL, 0x00005101ff081c6fUL,
  0x00007fa1fefd2565UL, 0x0000f8f9ff43114fUL, 0x000029f5ff8a1045UL, 0x0000a45afed615bcUL,
  0x0000e4c0feca14c6UL, 0x0000f7bfff800f03UL, 0x00002869ff891c3aUL, 0x00007890ff400e32UL,
  0x00009528ff81168dUL, 0x000083abff940d69UL, 0x00008932ff940ea5UL, 0x000068a6ff6f16c6UL,
  0x0000a9bbff7b14afUL, 0x000097e7ff8c1383UL, 0x0000086fff693ddeUL, 0x0000f1f9fefd21f0UL,
  0x000028aefec71b26UL, 0x000043fefeb52c0fUL, 0x000075ceff63112fUL, 0x00005310ff7a141aUL,
  0x0000f884ff6d156fUL, 0x0000e02bff2a1f04UL, 0x0000d86cffa30dc5UL, 0x0000854bfeca1c99UL,
  0x0000b345ffa0120fUL, 0x0000ed90feeb279aUL, 0x000006eeff1e168fUL, 0x00002faeff4a1d8cUL,
  0x0000ec79ffa3100aUL, 0x0000d620ffb00e49UL, 0x000026b3ff571a45UL, 0x00003c1fffa51767UL,
  0x00003d34ff6e0ce2UL, 0x0000bce3ff9921b2UL, 0x0000459eff8117b4UL, 0x0000c4eaff821180UL,
  0x00008867ff8c0e09UL, 0x0000898bffaa0e6eUL, 0x0000bae7ff3214cbUL, 0x0000666efed62af7UL,
  0x0000c594ffd91e13UL, 0x0000f8a6ff830d86UL, 0x00002372fec81701UL, 0x0000e77fff01175aUL,
  0x0000553bff8c0cfbUL, 0x0000b6e9ff8e11f7UL, 0x00000611ff071578UL, 0x00000099ff930db0UL,
  0x000049a9ff841587UL, 0x000014defea32a21UL, 0x0000d087fe671f6aUL, 0x0000cd72ff500f14UL,
  0x0000c864ff5d0dceUL, 0x000013eeff63142bUL, 0x00008e74ff711124UL, 0x000033f7ff791117UL,
  0x0000a289fe361c2cUL, 0x0000df26ff630d69UL, 0x000081ecff820ff3UL, 0x0000c119feea2da8UL,
  0x0000642bfefb1d50UL, 0x000089f5ffa11078UL, 0x0000fcc1fe5c229eUL, 0x000015bbff561963UL,
  0x00005364ff9d0e80UL, 0x000025ccff4c11a5UL, 0x000081cdff841812UL, 0x000099aaff590fd9UL,
  0x00008c50feb81cf0UL, 0x00003748ff890d16UL, 0x00009a40febd19dfUL, 0x00001d04ff930beaUL,
  0x00004654ff910c98UL, 0x00005fb0ff00284aUL, 0x0000bdddff920b81UL, 0x000013f3ff8213f5UL,
  0x00001597fef4156dUL, 0x000099caff7908cdUL, 0x000035fbfe9613b7UL, 0x000048ebfed71d77UL,
  0x0000b8d0fee01d7bUL, 0x00008a92ff162967UL, 0x00008644ff0e1e82UL, 0x000091bbff57124bUL,
  0x0000c10eff331bdbUL, 0x0000d52d002e051eUL, 0x0000be94feba189aUL, 0x000042beff92129dUL,
  0x00003da4ff510c40UL, 0x0000e310ff43132fUL, 0x0000c891ff77126cUL, 0x00003f3bff811062UL,
  0x0000cef6ff910d4fUL, 0x0000af8dfec52497UL, 0x0000b7d0ff5515fdUL, 0x00008cbcff510e01UL,
  0x00001c09ff5c168eUL, 0x000053afffb11273UL, 0x00006431ff840a68UL, 0x00000544ff811632UL,
  0x000007ddff231c42UL, 0x0000434dff5a11aeUL, 0x00004bb1ff6d1358UL, 0x0000e0a9ff7b0d14UL,
  0x000096d5ff431572UL, 0x6000004200802261UL, 0x1500000008000000UL, 0x0007000060027c00UL,
  0x0000400060070043UL, 0x600c004300000020UL, 0x1041104100000000UL, 0x34007c0000802101UL,
  0x340200430008c100UL, 0x00001000342f8000UL, 0x00000000340500c3UL, 0x0000000100002000UL,
  0x0000002400000000UL, 0x340c004200100000UL, 0x0000000700000006UL, 0x00000008340d0043UL,
  0x34110043342fa03fUL, 0x0000000000000000UL, 0x24007c0000802081UL, 0x240200430008c184UL,
  0x0000180071249630UL, 0x00000000240500c3UL, 0x0000000000000000UL, 0x0000002400000000UL,
  0x240c004200100000UL, 0x0000000700000006UL, 0x00000001240d0043UL, 0x241100437124ae6fUL,
  0x0000000800000000UL, 0x2c007c00008020c1UL, 0x2c0200430008c100UL, 0x00001000342f9000UL,
  0x000000002c0500c3UL, 0x0000000100002000UL, 0x0000002400000000UL, 0x2c0c004200100000UL,
  0x0000000700000006UL, 0x000000082c0d0043UL, 0x2c110043342fa03fUL, 0x0000000000000000UL,
  0x1c007c0000802041UL, 0x1c02012300080008UL, 0x00100010342ec000UL, 0x00000c0000c00018UL,
  0x0000000800000018UL, 0x000000240000c000UL, 0x1c0c004200100000UL, 0x0000000700000006UL,
  0x000000081c0d0043UL, 0x1c110043342f803fUL, 0x0000000000000000UL, 0x0000002710047c00UL,
  0x00000011100c0043UL, 0x100f006300000009UL, 0x000000090000000dUL, 0x10207c0000000015UL,
  0x10227c0000000029UL, 0x10007c0000000017UL, 0x1c00200100000001UL, 0x000000553c007c00UL,
  0x0000004140007c00UL, 0x6400200160002001UL, 0x2c00200124002001UL, 0x1c007fe434002001UL,
  0x0000000000000064UL, 0x0000000210007c00UL, 0x0000006410000424UL, 0x10007c0000000000UL,
  0x10007bc440000000UL, 0x0000000000000064UL, 0x0000000010047c00UL, 0x00000000100c0043UL,
  0x100f006300000000UL, 0x0000000000000000UL, 0x10207c0000000000UL, 0x10227c0000000000UL,
  0x1c007c0000000000UL, 0x1c00042400000002UL, 0x0000000000000064UL, 0x400000001c007c00UL,
  0x000000641c007bc4UL, 0x0080004100000000UL, 0x000000023c007c00UL, 0x000000643c000424UL,
  0x3c007c0000000000UL, 0x3c007bc440000000UL, 0x0000000000000064UL, 0x40007c0000800141UL,
  0x4000042400000002UL, 0x0000000000000064UL, 0x4000000040007c00UL, 0x0000006440007bc4UL,
  0x0080016100000000UL, 0x0800000260007c00UL, 0x0000006460000424UL, 0x60007c0000000000UL,
  0x60007bc448000000UL, 0x0000000000000064UL, 0x64007c0000800261UL, 0x6400042408000002UL,
  0x0000000000000064UL, 0x4800000064007c00UL, 0x0000006464007bc4UL, 0x0080028100000000UL,
  0x0000000224007c00UL, 0x0000006424000424UL, 0x24007c0000000000UL, 0x24007bc440000000UL,
  0x0000000000000064UL, 0x2c007c0000800081UL, 0x2c00042400000002UL, 0x0000000000000064UL,
  0x400000002c007c00UL, 0x000000642c007bc4UL, 0x008000c100000000UL, 0x0000000234007c00UL,
  0x0000006434000424UL, 0x34007c0000000000UL, 0x34007bc440000000UL, 0x0000000000000064UL,
  0x0000023d00800101UL, 0x44007c0000802181UL, 0x440200e300100034UL, 0x0000115501010303UL,
  0x0010001010634303UL, 0x000f0000000f0000UL, 0x440a7c0000000001UL, 0x440d7c0000000000UL,
  0x008022a100000000UL, 0x0800000068000042UL, 0x68020123156000fcUL, 0x0000000000078000UL,
  0x000000ff00000000UL, 0x000000000000bfffUL, 0x0504020000000000UL, 0x680c004300000001UL,
  0x2042204200000000UL, 0x00000001680b7c00UL, 0xfff612df69003003UL, 0xffbc05c80000b9dfUL,
  0xffc10ba400008532UL, 0xffd705520000b8d6UL, 0xffd9058300005445UL, 0xffaf060200004013UL,
  0xffbf062a0000f1bbUL, 0xfff80b5800009d63UL, 0xffc007180000e084UL, 0xffbf082200004b64UL,
  0xffcb045f0000f7ddUL, 0xffc4063c00000feeUL, 0xffc20b670000cb72UL, 0xffb70c1700007e7cUL,
  0x0002093500004dc6UL, 0xffbc0ae000003b72UL, 0xffd1054500000301UL, 0xff9b0fef0000d42dUL,
  0xffc006c700003014UL, 0xffbf0a2b00003123UL, 0xffbc0a7600007946UL, 0xffc00e2700009148UL,
  0xffbf06d900002361UL, 0x000705c600001d1eUL, 0xffe3106b00007d56UL, 0xfff40505000091c3UL,
  0xfff506d3000099b5UL, 0xffbb042b0000f24cUL, 0xffa80963000054feUL, 0xffea09f000003749UL,
  0xffab132a00008692UL, 0xffd50345000013f7UL, 0xffc626d600009c62UL, 0xffb10a5a000068c2UL,
  0xffe10f6c000009b6UL, 0xff8b0d270000029aUL, 0xffbe103a00008344UL, 0xffc0098e0000f241UL,
  0xffc109a700002fc6UL, 0x000109600000097eUL, 0xffbe164a0000445fUL, 0xffaf04de00001b36UL,
  0xffd3029e0000261eUL, 0x00090c0b00008ed7UL, 0xffbf079e0000d9f7UL, 0xffdd04ef0000aa53UL,
  0xffd5031e00001720UL, 0xffbe12220000c18dUL, 0xff7716c60000d713UL, 0xffba03c300005748UL,
  0xffbc0733000046c9UL, 0xffcf182b0000759dUL, 0xffbf0b0700008464UL, 0xffc00d2600002bbdUL,
  0xff810b5700000ecbUL, 0xffbc0b460000d5f1UL, 0xffba12cc00007fdeUL, 0xffd6046e0000cbdbUL,
  0xffd10af70000b761UL, 0xffab03b3000032cdUL, 0xffbb079b000023e7UL, 0xffc00bf00000faa4UL,
  0xffef077500001c5aUL, 0xff8a0a0e00005c7eUL, 0xffc30ceb00006bf7UL, 0x002e10050000c728UL,
  0xffa80c8e0000f394UL, 0x004411460000c140UL, 0xffdb044d0000f879UL, 0xffa5170c00003f5bUL,
  0xfffc052c00001aeaUL, 0xffbe084b0000e106UL, 0xffbe0b6d0000a0a4UL, 0xff8314d500002ce9UL,
  0xffc011db0000e37dUL, 0xffdb036b0000abdbUL, 0xffd70258000072eaUL, 0xffc1072d00007d31UL,
  0xffc0138b000020daUL, 0xff9c10360000334dUL, 0xfffd06a700006cb7UL, 0xffa90b8d0000e710UL,
  0xffc1070d0000b92eUL, 0x0035186600003100UL, 0xffea0cec0000f041UL, 0xfff305f200003934UL,
  0xffd2033b000029a8UL, 0xffa009d70000ff64UL, 0xffbd09c20000fd91UL, 0xffbf06c00000305fUL,
  0xffa1049400000a79UL, 0xffa60df50000c0c2UL, 0xffda0fae00008fc7UL, 0xffbf04310000d5efUL,
  0xff820d9800003552UL, 0xffec064e00000e69UL, 0xffdd135400002f0dUL, 0xffc008ba00001155UL,
  0x00040bcc0000a4bdUL, 0xffbe080400000319UL, 0xffbf0a120000d15bUL, 0xffd5021f00000438UL,
  0xfff707cd0000607fUL, 0xff9f09d5000036efUL, 0xff8d0ec00000b114UL, 0xffc3074b000059f8UL,
  0xffc0064000001635UL, 0xffb60b10000079e2UL, 0xff8b0ae70000fc6aUL, 0xffbe0bb500001d77UL,
  0xffbd061700000153UL, 0xffbf079c0000ae67UL, 0xffdf08970000ae34UL, 0xfff70a5f0000c41aUL,
  0xffba068c00001b65UL, 0xffed0f6c00006046UL, 0xffec0b68000011feUL, 0xffe706b0000042adUL,
  0xffc006670000c710UL, 0xffc00a7e00000999UL, 0xffc0071100000fbdUL, 0xffc2067000008b99UL,
  0xffc8130b000065d5UL, 0xffbb09540000af0eUL, 0xffbf08910000fdf9UL, 0xffb80a9200007802UL,
  0xffd102320000eaf1UL, 0xffca07d800003722UL, 0xffbf0e950000476eUL, 0xffaa09bf0000ea20UL,
  0xff960c3d0000f66aUL, 0xffaa09460000e94fUL, 0xffbe0d450000e857UL, 0xffec08ca0000e10cUL,
  0xffbf095d00008ff7UL, 0xffe802730000d005UL, 0xffbc0c820000f361UL, 0xffbb12780000b086UL,
  0xffbf0c4000004d53UL, 0xffb3157e0000345aUL, 0xffc108f700007dafUL, 0xffc1076a0000e87bUL,
  0xffa017cf0000a799UL, 0xffbf081c0000aef9UL, 0xff4818310000b2faUL, 0xffbf0b9c0000752bUL,
  0xff9f072000000ac2UL, 0xffcf021d00000759UL, 0xffef050300005021UL, 0xffbb48b10000b555UL,
  0xffca14690000ab7aUL, 0xffcb12f60000d2c4UL, 0xff940a290000364cUL, 0xffe403ed0000695bUL,
  0xffb811730000d3eeUL, 0xffaf0ce2000077f1UL, 0xffbb08ca0000a1cfUL, 0xff9210da0000881aUL,
  0xffbe11d800006e89UL, 0xffe21aa80000f8c8UL, 0xffef09960000ca38UL, 0xffdb0f5c0000c161UL,
  0xffc00ef400008b24UL, 0xffd305b10000184cUL, 0xffa20ad500008f40UL, 0xffb2108f0000cb01UL,
  0xffa00a270000f0e4UL, 0xffd4045e0000b48fUL, 0xff9b06e80000e222UL, 0xffd703a500006428UL,
  0xff7f1dac00007f06UL, 0xffd406780000fa0cUL, 0xfffa0fe30000837cUL, 0xfff302b20000d0edUL,
  0xffbf09e400003320UL, 0xff9f0e690000f894UL, 0xffba141300007090UL, 0xffba07090000cb88UL,
  0xffbc0a5f000057dcUL, 0xffae09d300005abeUL, 0xffdc12b900003a97UL, 0xffbf06bf0000ef0dUL,
  0xffa514d60000ca0aUL, 0xffc207ec0000ed1cUL, 0xffbe09d3000084aaUL, 0xffbb116800008e64UL,
  0xffc007660000187bUL, 0xfff80a080000a4a1UL, 0xffbe0fb900001491UL, 0xffc00ce500002851UL,
  0xffbe0af000008dd7UL, 0xffb9128000007799UL, 0x00802241000042f3UL, 0x080000005c000042UL,
  0x5c027c0015000000UL, 0x5c07004300070000UL, 0x0000002000004000UL, 0x000000005c0c0043UL,
  0x0080200110411041UL, 0x0008000014007c00UL, 0x342ec00014020123UL, 0x00c0000100100010UL,
  0x0000000000000c00UL, 0x0000000100000001UL, 0x0010000000000024UL, 0x00000006140c0042UL,
  0x140d004300000007UL, 0x342f803f000000c0UL, 0x0000000014110043UL, 0x0080208100000000UL,
  0x0008018424007c00UL, 0x7125fca024020043UL, 0x240500c3000006c0UL, 0x0000000000000000UL,
  0x0000000000000000UL, 0x0010000000000024UL, 0x00000006240c0042UL, 0x240d004300000007UL,
  0x7126039f00000001UL, 0x0000000024110043UL, 0x008020a100000008UL, 0x0008000828007c00UL,
  0x342e000028020123UL, 0x00c0000100100010UL, 0x0000000100000c00UL, 0x0000c000000000c0UL,
  0x0010000000000024UL, 0x00000006280c0042UL, 0x280d004300000007UL, 0x342ec03f000000c0UL,
  0x0000000028110043UL, 0x10077c0000000000UL, 0x1012004300000025UL, 0x0000000900000001UL,
  0x0000002b101e7c00UL, 0x0000001910247c00UL, 0x0000000110007c00UL, 0x44007c0028002001UL,
  0x5c00200100100035UL, 0x1400200168002001UL, 0x28007fe424002001UL, 0x0000000000000064UL,
  0x0000000210007c00UL, 0x0000006410000424UL, 0x10007c0000000000UL, 0x10007bc440000000UL,
  0x0000000000000064UL, 0x0000000010077c00UL, 0x0000000010120043UL, 0x101e7c0000000000UL,
  0x10247c0000000000UL, 0x28007c0000000000UL, 0x2800042400000002UL, 0x0000000000000064UL,
  0x4000000028007c00UL, 0x0000006428007bc4UL, 0x008000a100000000UL, 0x0000000244007c00UL,
  0x0000006444000424UL, 0x44007c0000000000UL, 0x44007bc440000000UL, 0x0000000000000064UL,
  0x5c007c0000800181UL, 0x5c00042408000002UL, 0x0000000000000064UL, 0x480000005c007c00UL,
  0x000000645c007bc4UL, 0x0080024100000000UL, 0x0800000268007c00UL, 0x0000006468000424UL,
  0x68007c0000000000UL, 0x68007bc448000000UL, 0x0000000000000064UL, 0x14007c00008002a1UL,
  0x1400042400000002UL, 0x0000000000000064UL, 0x4000000014007c00UL, 0x0000006414007bc4UL,
  0x0080000100000000UL, 0x0000000224007c00UL, 0x0000006424000424UL, 0x24007c0000000000UL,
  0x24007bc440000000UL, 0x0000000000000064UL, 0x0000025d00800081UL, 0x48007c00008021a1UL,
  0x480200e310d00034UL, 0x0000110010600101UL, 0x0010060010774004UL, 0x000f000005ff0000UL,
  0x480a7c00000f0020UL, 0x480d7c0000000000UL, 0x0080214100000000UL, 0x10d000203c007c00UL,
  0x106001013c0200e3UL, 0x1063440000001100UL, 0x05ff000000100600UL, 0x001f1020000f0000UL,
  0x000000003c0a7c00UL, 0x000000003c0d7c00UL, 0x6000004200802261UL, 0x156000fc08000000UL,
  0x0009000060020123UL, 0x0000000f00000000UL, 0x00001fff00000fffUL, 0x0000000000000000UL,
  0x00000001078403f1UL, 0x00000000600c0043UL, 0x600b7c0020422042UL, 0x6100080300000001UL,
  0x000066e9ffb90c07UL, 0x0000a5b600060d08UL, 0x00005d2500100972UL, 0x0000fe81ffef07ffUL,
  0x00007cdffff80c67UL, 0x000066beffd90a62UL, 0x0000263b002f1160UL, 0x000099b9003d0c25UL,
  0x0000bc0c00a00e0cUL, 0x0000342300120afaUL, 0x00009b3300520dfbUL, 0x0000ffdb00770b7dUL,
  0x00004afb001c0be6UL, 0x00000a9dfff40eb7UL, 0x00004982001d0a77UL, 0x00008d1f0029145eUL,
  0x0000163100490ac8UL, 0x0000dd3e00900c5bUL, 0x00008130004c19beUL, 0x00005118fff70981UL,
  0x000017ad00370c44UL, 0x0000f569003c08d9UL, 0x0000eafafeee2c56UL, 0x00007f1bfffe080eUL,
  0x000042d5003d0cf7UL, 0x0000cb0a00150e6bUL, 0x00009f16ff571480UL, 0x00008692002d08f5UL,
  0x0000e106ffcb1721UL, 0x0000400a020a4b06UL, 0x00001be200120e0aUL, 0x00006c8dffb6110cUL,
  0x6400004200802281UL, 0x0500016008000000UL, 0x0007000164027c00UL, 0x373a6e7464070043UL,
  0x640c004300004000UL, 0x1041104100000000UL, 0x18007c0000802021UL, 0x1802012308880200UL,
  0x00100010342e0000UL, 0x00000c0000c00020UL, 0x0000000200000000UL, 0x00000024000000c0UL,
  0x180c004200100000UL, 0x0000000700000006UL, 0x00000002180d0043UL, 0x18110043342ec03fUL,
  0x0000000000000000UL, 0x34007c0000802101UL, 0x3402004308880184UL, 0x000008007124ae30UL,
  0x00000000340500c3UL, 0x0000000000000000UL, 0x0000002400000000UL, 0x340c004200100000UL,
  0x0000000700000006UL, 0x00000001340d0043UL, 0x341100437124c66fUL, 0x0000000800000000UL,
  0x28007c00008020a1UL, 0x2802012308880200UL, 0x00100010342e0060UL, 0x00000c0000c00020UL,
  0x0000000200000000UL, 0x00000024000000c0UL, 0x280c004200100000UL, 0x0000000700000006UL,
  0x00000002280d0043UL, 0x28110043342ec03fUL, 0x0000000000000000UL, 0x30007c00008020e1UL,
  0x3002004300080100UL, 0x00001000342f8000UL, 0x00000000300500c3UL, 0x0000000000001000UL,
  0x0000002400000000UL, 0x300c004200100000UL, 0x0000000700000006UL, 0x00000002300d0043UL,
  0x30110043342fa03fUL, 0x0000000000000000UL, 0x14007c0000802001UL, 0x1402004300080108UL,
  0x00001000342fa000UL, 0x00000000140500c3UL, 0x0000000000001000UL, 0x0000002400000000UL,
  0x140c004200100000UL, 0x0000000700000006UL, 0x00000002140d0043UL, 0x14110043342fc03fUL,
  0x0000000000000000UL, 0x0000002910027c00UL, 0x0000000b100c0063UL, 0x0000001b00000011UL,
  0x0000000310150043UL, 0x10207c0000000011UL, 0x1022004300000015UL, 0x000000270000000fUL,
  0x0000000110007c00UL, 0x3c007c0014002001UL, 0x48007c0010d00021UL, 0x6000200110d00035UL,
  0x1800200164002001UL, 0x3000200128002001UL, 0x14007fe434002001UL, 0x0000000000000064UL,
  0x0000000210007c00UL, 0x0000006410000424UL, 0x10007c0000000000UL, 0x10007bc440000000UL,
  0x0000000000000064UL, 0x0000000010027c00UL, 0x00000000100c0063UL, 0x0000000000000000UL,
  0x0000000010150043UL, 0x10207c0000000000UL, 0x1022004300000000UL, 0x0000000000000000UL,
  0x0000000214007c00UL, 0x0000006414000424UL, 0x14007c0000000000UL, 0x14007bc440000000UL,
  0x0000000000000064UL, 0x3c007c0000800001UL, 0x3c00042400000002UL, 0x0000000000000064UL,
  0x400000003c007c00UL, 0x000000643c007bc4UL, 0x0080014100000000UL, 0x0000000248007c00UL,
  0x0000006448000424UL, 0x48007c0000000000UL, 0x48007bc440000000UL, 0x0000000000000064UL,
  0x60007c00008001a1UL, 0x6000042408000002UL, 0x0000000000000064UL, 0x4800000060007c00UL,
  0x0000006460007bc4UL, 0x0080026100000000UL, 0x0800000264007c00UL, 0x0000006464000424UL,
  0x64007c0000000000UL, 0x64007bc448000000UL, 0x0000000000000064UL, 0x18007c0000800281UL,
  0x1800042400000002UL, 0x0000000000000064UL, 0x4000000018007c00UL, 0x0000006418007bc4UL,
  0x0080002100000000UL, 0x0000000228007c00UL, 0x0000006428000424UL, 0x28007c0000000000UL,
  0x28007bc440000000UL, 0x0000000000000064UL, 0x30007c00008000a1UL, 0x3000042400000002UL,
  0x0000000000000064UL, 0x4000000030007c00UL, 0x0000006430007bc4UL, 0x008000e100000000UL,
  0x0000000234007c00UL, 0x0000006434000424UL, 0x34007c0000000000UL, 0x34007bc440000000UL,
  0x0000000000000064UL, 0x0000027d00800101UL, 0x40007c0000802161UL, 0x400200e300000054UL,
  0x0000110018100101UL, 0x0010010010b74003UL, 0x000f000000ff0000UL, 0x400a7c0000170030UL,
  0x400c004300000000UL, 0x0000000000000008UL, 0x44007c0000802181UL, 0x440200e300000040UL,
  0x0000110018100101UL, 0x0010010010a34300UL, 0x000f000000ff0000UL, 0x440a7c00002f1830UL,
  0x440c004300000000UL, 0x0000000000000008UL, 0x5c00004200802241UL, 0x156000fc08000000UL,
  0x000900005c020123UL, 0x0000001700000000UL, 0x0000bfff000017ffUL, 0x0000000000000000UL,
  0x00000001050403e9UL, 0x000000005c0c0043UL, 0x5c0b7c0020422042UL, 0x5d00300300000001UL,
  0x000000f0fd9c34daUL, 0x0000536dfe3b4665UL, 0x00000150fe03313cUL, 0x00000b38fdcb3755UL,
  0x0000ac6dfe95294eUL, 0x0000f72fff341305UL, 0x0000f82efe5e24f8UL, 0x0000d9d2feec1a3dUL,
  0x00003ff6ff3d202cUL, 0x0000a07ffda263ceUL, 0x0000e2a0fec634b1UL, 0x000099b2fed11559UL,
  0x00000035fefe1b1dUL, 0x00001134ff42337eUL, 0x00007cb9fe893fddUL, 0x0000f578fe4a2f62UL,
  0x000054c1ff7d4499UL, 0x00008e08fe80338bUL, 0x00005109fe14334eUL, 0x0000f7eefec629fbUL,
  0x00006bacfe672b47UL, 0x0000d753ff060f78UL, 0x00000a38fd2e2715UL, 0x0000f211fe09273fUL,
  0x0000fa3cfe144873UL, 0x00008817fe4e3d7bUL, 0x00001d8aff361908UL, 0x00008e44fddd6510UL,
  0x0000508ffed414faUL, 0x00001442fef81981UL, 0x00006319fd643a56UL, 0x0000a280feb5257cUL,
  0x00002669ff071a48UL, 0x0000b479ffcc0a90UL, 0x0000560cff5928baUL, 0x0000b6e0febc256aUL,
  0x0000a1a7fde24ed4UL, 0x000030b8fe983010UL, 0x00000b53fe753668UL, 0x0000b905fdc042aaUL,
  0x0000522dfdd63e66UL, 0x0000ebbffe881bc1UL, 0x000078bcfe1b630dUL, 0x000024a2fec21452UL,
  0x0000363aff4f12a2UL, 0x00007c73fe7e2daeUL, 0x000077d8ff0b1874UL, 0x00005cb1fe613a19UL,
  0x0000606efdfc3f6cUL, 0x0000594eff061749UL, 0x0000bce0fdd85a25UL, 0x00005adafdca3c2bUL,
  0x00007d8dfeda1911UL, 0x0000a9cffee12fe9UL, 0x0000b721fe1f2f11UL, 0x0000801dfe11431eUL,
  0x0000f834fed81385UL, 0x0000328ffeca21fdUL, 0x00009224feb02176UL, 0x000035fffede1781UL,
  0x00000d27feef2987UL, 0x0000dfbafee41638UL, 0x00006817ff2d1efcUL, 0x0000aa94ff021209UL,
  0x00008750fde35ad3UL, 0x000063d1fee6126aUL, 0x0000ea74fef433b6UL, 0x00007503fdd333dcUL,
  0x0000e142feca253eUL, 0x0000a3f6ff421177UL, 0x0000865bfecd1297UL, 0x00005149fed1402aUL,
  0x00008ac6feed22a1UL, 0x0000f842fea43405UL, 0x00006355fee31693UL, 0x00000591fe952408UL,
  0x00008f72fe891714UL, 0x0000ee37fd80438fUL, 0x0000cd2bfcf832fbUL, 0x00005217fdc13220UL,
  0x0000dd98ff141396UL, 0x0000954afef51747UL, 0x00003a6cfece1518UL, 0x0000e133fefd18a3UL,
  0x00004cd2fe1a5651UL, 0x00005466fde13aa6UL, 0x00009122fed91cb5UL, 0x0000b47efd783846UL,
  0x000092dafde62e0bUL, 0x0000c5e1fe335e6bUL, 0x0000707cfeb4199cUL, 0x0000722cfdfe43b7UL,
  0x000076e6fe393398UL, 0x00008fd9fed50ce7UL, 0x0000756aff7b111aUL, 0x00002b34fdfc255dUL,
  0x00008fc2ff211023UL, 0x0000387cfeb61f79UL, 0x00008c93fdba51b3UL, 0x00001c9afeaf235bUL,
  0x0000ac8afe782205UL, 0x00007ed3fe2920a6UL, 0x0000a79dfeb01994UL, 0x00004626fef11cc4UL,
  0x00007ca9feb03aa1UL, 0x00001435fed4128fUL, 0x00006bbbfe963162UL, 0x00001e86fecc2edcUL,
  0x0000f6affdc14991UL, 0x00009491fe4744e4UL, 0x00009ee8fda23dc5UL, 0x0000060bfcef354bUL,
  0x00000788febc481aUL, 0x0000025afddc52baUL, 0x00003db9feca19ffUL, 0x0000ddc6fd663cbbUL,
  0x0000d2b4fecb3c5bUL, 0x0000416dffcc0d96UL, 0x0000db45ff102194UL, 0x00007f3eff4f1c96UL,
  0x0000e5f7fec61c03UL, 0x0000e595fd6960bbUL, 0x00000795fde82e66UL, 0x00006055fe633e42UL,
  0x00000b09fd7a4750UL, 0x000003e6ff080b2dUL, 0x00004b87feb61ab9UL, 0x00004f5d000b2aa1UL,
  0x0000e940fdd62ee8UL, 0x00005975ff0a17d0UL, 0x0000ba95fdcd2ed2UL, 0x0000a37cfda34014UL,
  0x00001614fd93338dUL, 0x00009024ff250f20UL, 0x0000a658fdd83a50UL, 0x0000847cfde83560UL,
  0x00000cdaff4a2488UL, 0x00005491fe7222e4UL, 0x0000cf3afe9725eeUL, 0x0000e5c6fed22e76UL,
  0x00003fa2fede19b0UL, 0x000088fafecc1fa9UL, 0x0000aeb4fdff2642UL, 0x000057f4fdb836bdUL,
  0x00005f1dfee514e3UL, 0x00004b04ff112b7dUL, 0x00005a1cfe681c98UL, 0x00005d3bfdd12e63UL,
  0x00006cd9fe1056b3UL, 0x00007cccfe353777UL, 0x00001c45fedd0e47UL, 0x0000e60cfd603122UL,
  0x0000a867fdf14f9aUL, 0x0000610bfd77494eUL, 0x000045a8fe214249UL, 0x00008b59fe761d3bUL,
  0x0000b6bdfee31234UL, 0x00000b7cffeb0a93UL, 0x000060d4fe761dcfUL, 0x00001df8fe694372UL,
  0x00002c76fdb82d0aUL, 0x00005a92fda343dcUL, 0x0000d41cfe832f16UL, 0x000002d2feaa3580UL,
  0x00007955fed0174fUL, 0x0000c2dcfe462fe0UL, 0x000081a1fd076d66UL, 0x0000d174fe234cf9UL,
  0x00002d43fec21b08UL, 0x0000395cff0711cbUL, 0x00008cd9fd632ac3UL, 0x00002016fe513028UL,
  0x000096b6fe8a41d7UL, 0x0000fdcefec330fbUL, 0x0000b4d3fd1052e1UL, 0x00003186ff1a3179UL,
  0x0000be5afdc749f3UL, 0x00000b5afe024c20UL, 0x00001c3bfe7b36c6UL, 0x000007aafe9826a4UL,
  0x0000eb9bfed62b07UL, 0x00006320fd8b330bUL, 0x000086e9fe922c4eUL, 0x00006b65fdf53179UL,
  0x00007725fe884808UL, 0x0000610bfe9a3b43UL, 0x00003875fe2e5cceUL, 0x00005e00fef9175aUL,
  0x000027aefe7622ddUL, 0x0000f36ffebe2784UL, 0x00003008feaa2415UL, 0x0000838cfe943049UL,
  0x68000042008022a1UL, 0x1500000008000000UL, 0x0007000068027c00UL, 0x0000400068070043UL,
  0x680c004300000020UL, 0x1041104100000000UL, 0x1c007c0000802041UL, 0x1c0200430008c100UL,
  0x00001000342fa000UL, 0x000000001c0500c3UL, 0x0000000100002000UL, 0x0000002400000000UL,
  0x1c0c004200100000UL, 0x0000000700000006UL, 0x000000081c0d0043UL, 0x1c110043342fc03fUL,
  0x0000000000000000UL, 0x34007c0000802101UL, 0x340200430008c184UL, 0x000018007124c630UL,
  0x00000000340500c3UL, 0x0000000000000000UL, 0x0000002400000000UL, 0x340c004200100000UL,
  0x0000000700000006UL, 0x00000001340d0043UL, 0x341100437124de6fUL, 0x0000000800000000UL,
  0x14007c0000802001UL, 0x140200430008c100UL, 0x00001000342fb000UL, 0x00000000140500c3UL,
  0x0000000100002000UL, 0x0000002400000000UL, 0x140c004200100000UL, 0x0000000700000006UL,
  0x00000008140d0043UL, 0x14110043342fc03fUL, 0x0000000000000000UL, 0x30007c00008020e1UL,
  0x3002012300080008UL, 0x00100010342ec000UL, 0x00000c0000c00018UL, 0x0000000800000018UL,
  0x000000240000c000UL, 0x300c004200100000UL, 0x0000000700000006UL, 0x00000008300d0043UL,
  0x30110043342f803fUL, 0x0000000000000000UL, 0x0000002b10097c00UL, 0x00000005100f0043UL,
  0x1012006300000011UL, 0x0000001100000001UL, 0x101e7c0000000017UL, 0x10247c0000000019UL,
  0x10007c0000000025UL, 0x3000200100000001UL, 0x0000005540007c00UL, 0x0000004144007c00UL,
  0x680020015c002001UL, 0x1c00200114002001UL, 0x30007fe434002001UL, 0x0000000000000064UL,
  0x0000000210007c00UL, 0x0000006410000424UL, 0x10007c0000000000UL, 0x10007bc440000000UL,
  0x0000000000000064UL, 0x0000000010097c00UL, 0x00000000100f0043UL, 0x1012006300000000UL,
  0x0000000000000000UL, 0x101e7c0000000000UL, 0x10247c0000000000UL, 0x30007c0000000000UL,
  0x3000042400000002UL, 0x0000000000000064UL, 0x4000000030007c00UL, 0x0000006430007bc4UL,
  0x008000e100000000UL, 0x0000000240007c00UL, 0x0000006440000424UL, 0x40007c0000000000UL,
  0x40007bc440000000UL, 0x0000000000000064UL, 0x44007c0000800161UL, 0x4400042400000002UL,
  0x0000000000000064UL, 0x4000000044007c00UL, 0x0000006444007bc4UL, 0x0080018100000000UL,
  0x080000025c007c00UL, 0x000000645c000424UL, 0x5c007c0000000000UL, 0x5c007bc448000000UL,
  0x0000000000000064UL, 0x68007c0000800241UL, 0x6800042408000002UL, 0x0000000000000064UL,
  0x4800000068007c00UL, 0x0000006468007bc4UL, 0x008002a100000000UL, 0x0000000214007c00UL,
  0x0000006414000424UL, 0x14007c0000000000UL, 0x14007bc440000000UL, 0x0000000000000064UL,
  0x1c007c0000800001UL, 0x1c00042400000002UL, 0x0000000000000064UL, 0x400000001c007c00UL,
  0x000000641c007bc4UL, 0x0080004100000000UL, 0x0000000234007c00UL, 0x0000006434000424UL,
  0x34007c0000000000UL, 0x34007bc440000000UL, 0x0000000000000064UL, 0x0000029d00800101UL,
  0x3c007c0000802141UL, 0x3c0200e300100034UL, 0x0000115501010303UL, 0x0010001010634303UL,
  0x000f0000000f0000UL, 0x3c0a7c0000000001UL, 0x3c0d7c0000000000UL, 0x0080226100000000UL,
  0x0800000060000042UL, 0x60020123156000fcUL, 0x0000000000080000UL, 0x000000ff00000000UL,
  0x000000000000bfffUL, 0x0504020000000000UL, 0x600c004300000001UL, 0x2042204200000000UL,
  0x00000001600b7c00UL, 0xff520e3f61003003UL, 0xffbf0ae700009bb9UL, 0xff7f2075000049c4UL,
  0xff4814660000bb08UL, 0xffbf0983000020d3UL, 0x007813ed000057c0UL, 0xff7e1224000061d5UL,
  0xff281a530000db79UL, 0xff730c840000db0dUL, 0xff800a140000351eUL, 0xffe50d3c0000701dUL,
  0xfef21b3000007b56UL, 0xff8d21850000af2dUL, 0xff62182c00004a50UL, 0xffdd082000007ddfUL,
  0xff53168d00005563UL, 0xff860cfd0000a974UL, 0xff7e0f780000fb68UL, 0xffe32117000012e9UL,
  0xff69140f000075c1UL, 0xff32356e0000d2e9UL, 0xffc12de7000018c3UL, 0xff5a17900000e556UL,
  0xfef51ce2000042eaUL, 0xff3d0e6f0000bde9UL, 0xff800d120000beffUL, 0xffab1d1a00002735UL,
  0xff490d2e00000d94UL, 0xfeb121fd000076bfUL, 0xfed345e000002d8bUL, 0xff570d540000dfa8UL,
  0xff790d4c000086dbUL, 0xff811b7e00003f37UL, 0xfd446d9d00006564UL, 0xff481a650000476fUL,
  0xffba0ddd00001f18UL, 0xff6c12cb0000aff0UL, 0xff681d2500003555UL, 0xff0815550000900fUL,
  0xff18138200003725UL, 0xfff107870000f701UL, 0xff1c13d80000e214UL, 0xffff10ae0000c445UL,
  0xff7d23e60000936cUL, 0xffee04f80000ab2dUL, 0xffb80a4c00005e6fUL, 0xff730f3d00006a2cUL,
  0xffc3096e0000a23dUL, 0xffa6052d0000d462UL, 0xff6c2224000077f3UL, 0x00100fdd0000e538UL,
  0xff420b4a00007352UL, 0xff7529190000f845UL, 0xff8b105400009af4UL, 0xff371a5a0000b3e4UL,
  0xff0f110e00000a4bUL, 0xff7e1a2a000056e4UL, 0x00041a990000122aUL, 0xfff810f50000f993UL,
  0xff722749000044a4UL, 0x00140e4d0000666cUL, 0xff73176b00006f1fUL, 0x005d275a0000d81dUL,
  0xff7411c0000074f5UL, 0xffab070c0000e57aUL, 0xff7f18910000396dUL, 0xff830fd9000075cdUL,
  0x0011107000000695UL, 0xff6d169500002d6dUL, 0xff8023f8000000b4UL, 0xff5230830000e9ccUL,
  0xff7f197700003c95UL, 0xff7d23ac0000e689UL, 0xff8316de000012deUL, 0xfe8a2e2400003fd9UL,
  0xff22196800000203UL, 0xff7f2f99000037c9UL, 0xff4c12220000dc4dUL, 0xff521d1f0000e376UL,
  0xff9e181a00005b72UL, 0xff84353d000025e9UL, 0xff5b1aae00006b52UL, 0xff801256000093bbUL,
  0xfe8f26930000024aUL, 0xffa9051200008083UL, 0xff3215e600009997UL, 0xff761d6e0000c4a3UL,
  0xff4c176e0000492aUL, 0xff7f163c0000d0dcUL, 0xff800a840000cb32UL, 0xfeba1eae0000ef33UL,
  0xff6f0cd30000cf56UL, 0xff14172000008804UL, 0xff362e2a0000dc19UL, 0x00e11fec00009aaaUL,
  0xff7d156b000064a8UL, 0x008d253b0000a046UL, 0xff59139e0000391eUL, 0xff5d0c7200001ec6UL,
  0xff4129f60000a2b2UL, 0xff6c139b00008802UL, 0xffda083b0000b398UL, 0xff8918bc00002a2eUL,
  0xfff414330000c887UL, 0xffdf09e900002370UL, 0xff9922970000d408UL, 0xff7d10390000c171UL,
  0xffca08120000c20eUL, 0xff29130300006a59UL, 0xffb40afd00006a17UL, 0xfedb17a9000037d1UL,
  0xff7c0d060000537eUL, 0xff890a4f000090d6UL, 0xff210abb0000d9c4UL, 0xfee624880000b4adUL,
  0xff9c073700006e34UL, 0xff800b8a00009b45UL, 0x00303922000019f6UL, 0xffeb0bda0000229cUL,
  0x001210b10000eb51UL, 0xff612e9800001ab7UL, 0xff38124d000014a6UL, 0xff4013930000633fUL,
  0xfe9f19cc00003763UL, 0xff4310650000c671UL, 0xff043c850000f9c6UL, 0xfedc36510000b6e1UL,
  0x01bf23fd00003feeUL, 0xfff20a360000f82aUL, 0xff841ca30000e207UL, 0xff7f1d0800001c78UL,
  0xfefd17f70000cd32UL, 0xff80163700001b76UL, 0xff88283400000b1bUL, 0xff34137a00009427UL,
  0xff7f13d50000b28eUL, 0x008d1b3e00003ea2UL, 0xff820ed000008ea2UL, 0xff5e23b20000066fUL,
  0x000f13b000005cecUL, 0xff682021000055e4UL, 0xff72109900006c00UL, 0xfffe121a000040fdUL,
  0xff9b0b200000c9f1UL, 0xffa9135200001510UL, 0xff74106400002ac8UL, 0xfee61561000046b4UL,
  0xff7f118300008b8eUL, 0x000b0b0c00009b4cUL, 0xffdd082f0000113dUL, 0xfec94e410000ce52UL,
  0xff7606ea0000b3e2UL, 0xff260f3d0000de64UL, 0xff9f04290000ae63UL, 0xff6005050000258dUL,
  0xff811bcd00003298UL, 0xff841cce00000b98UL, 0xffb142eb0000ec34UL, 0xff7d17ac0000cb80UL,
  0xff2b095a0000cdc3UL, 0xff720859000041c6UL, 0xff3b10c5000028b3UL, 0xffc405c30000507dUL,
  0xff830e370000a452UL, 0xff4e2d530000e308UL, 0xffe90a4a000083eeUL, 0xff3411240000336dUL,
  0xffaa051b0000b069UL, 0xff4e237200005b56UL, 0xff8016a700005015UL, 0xff5c0fbd00006044UL,
  0xff7b0b2d000010ebUL, 0xffae05680000ef4dUL, 0xff7e15f100008c02UL, 0xff3217e3000059a1UL,
  0xff7e15fc0000db03UL, 0xffad04d00000a5b9UL, 0xffe708070000669bUL, 0xff7c0f4d0000f731UL,
  0xff2a213300008c78UL, 0xff6322320000e851UL, 0xffbd0b5700005977UL, 0xff750e230000b77dUL,
  0xff7d2a860000fe07UL, 0xff8116d700007cd3UL, 0xff7b121500008449UL, 0xffc0059e0000ce46UL,
  0xff6c12060000f358UL, 0xff890d2600008ca2UL, 0xff71142d0000051bUL, 0xff600a5f0000a046UL,
  0xff08166c00005649UL, 0x0080228100004420UL, 0x0800000064000042UL, 0x64027c0015000000UL,
  0x6407004300070000UL, 0x0000002000004000UL, 0x00000000640c0043UL, 0x0080200110411041UL,
  0x0008000014007c00UL, 0x342ec00014020123UL, 0x00c0000100100010UL, 0x0000000000000c00UL,
  0x0000000100000001UL, 0x0010000000000024UL, 0x00000006140c0042UL, 0x140d004300000007UL,
  0x342f803f000000c0UL, 0x0000000014110043UL, 0x0080204100000000UL, 0x000801841c007c00UL,
  0x712603601c020043UL, 0x1c0500c3000006c0UL, 0x0000000000000000UL, 0x0000000000000000UL,
  0x0010000000000024UL, 0x000000061c0c0042UL, 0x1c0d004300000007UL, 0x71260a5f00000001UL,
  0x000000001c110043UL, 0x008020e100000008UL, 0x0008000830007c00UL, 0x342e000030020123UL,
  0x00c0000100100010UL, 0x0000000100000c00UL, 0x0000c000000000c0UL, 0x0010000000000024UL,
  0x00000006300c0042UL, 0x300d004300000007UL, 0x342ec03f000000c0UL, 0x0000000030110043UL,
  0x10097c0000000000UL, 0x100c004300000029UL, 0x0000000500000001UL, 0x0000001510207c00UL,
  0x0000002710227c00UL, 0x0000000110007c00UL, 0x3c007c0030002001UL, 0x6000200100100035UL,
  0x1400200164002001UL, 0x30007fe41c002001UL, 0x0000000000000064UL, 0x0000000210007c00UL,
  0x0000006410000424UL, 0x10007c0000000000UL, 0x10007bc440000000UL, 0x0000000000000064UL,
  0x0000000010097c00UL, 0x00000000100c0043UL, 0x10207c0000000000UL, 0x10227c0000000000UL,
  0x30007c0000000000UL, 0x3000042400000002UL, 0x0000000000000064UL, 0x4000000030007c00UL,
  0x0000006430007bc4UL, 0x008000e100000000UL, 0x000000023c007c00UL, 0x000000643c000424UL,
  0x3c007c0000000000UL, 0x3c007bc440000000UL, 0x0000000000000064UL, 0x60007c0000800141UL,
  0x6000042408000002UL, 0x0000000000000064UL, 0x4800000060007c00UL, 0x0000006460007bc4UL,
  0x0080026100000000UL, 0x0800000264007c00UL, 0x0000006464000424UL, 0x64007c0000000000UL,
  0x64007bc448000000UL, 0x0000000000000064UL, 0x14007c0000800281UL, 0x1400042400000002UL,
  0x0000000000000064UL, 0x4000000014007c00UL, 0x0000006414007bc4UL, 0x0080000100000000UL,
  0x000000021c007c00UL, 0x000000641c000424UL, 0x1c007c0000000000UL, 0x1c007bc440000000UL,
  0x0000000000000064UL, 0x000002bd00800041UL, 0x48007c00008021a1UL, 0x480200e310d00034UL,
  0x0000110010600101UL, 0x0010060010774005UL, 0x000f000005ff0000UL, 0x480a7c00000f0020UL,
  0x480d7c0000000000UL, 0x0080216100000000UL, 0x10d0002040007c00UL, 0x10600101400200e3UL,
  0x1063450000001100UL, 0x05ff000000100600UL, 0x001f1020000f0000UL, 0x00000000400a7c00UL,
  0x00000000400d7c00UL, 0x5c00004200802241UL, 0x156000fc08000000UL, 0x000900005c020123UL,
  0x0000000f00000000UL, 0x00001fff00000fffUL, 0x0000000000000000UL, 0x00000001078403f1UL,
  0x000000005c0c0043UL, 0x5c0b7c0020422042UL, 0x5d00080300000001UL, 0x00004bb4008511a1UL,
  0x000069400037128aUL, 0x00003525006e1120UL, 0x00008b2d009a106fUL, 0x00003c04002c1716UL,
  0x0000b588005c10a5UL, 0x0000a6d0003220d8UL, 0x0000fc9600a80f43UL, 0x0000d028002d13c0UL,
  0x00009887002f0f80UL, 0x00003ae8ffe91790UL, 0x0000809d00552052UL, 0x0000edfd00391451UL,
  0x0000ae3a0051155cUL, 0x0000c22500360f38UL, 0x0000f69200621d1eUL, 0x000018c900380b0cUL,
  0x0000a3f3009010b2UL, 0x0000d85cff672399UL, 0x000079ce00791077UL, 0x000097b5004e18ecUL,
  0x000043d900781469UL, 0x0000f0d20097587aUL, 0x0000ed8f003e0e25UL, 0x0000d27700450f39UL,
  0x0000532c004f11afUL, 0x00002588ff362a48UL, 0x000097bf007410c2UL, 0x0000391300172c32UL,
  0x00007dd6ff43342bUL, 0x00006c1a009a0f92UL, 0x0000543500a01f97UL, 0x68000042008022a1UL,
  0x0500016008000000UL, 0x0007080168027c00UL, 0x99de662268070043UL, 0x680c004300004000UL,
  0x1041104100000000UL, 0x20007c0000802061UL, 0x2002012308880200UL, 0x00100010342e0000UL,
  0x00000c0000c00020UL, 0x0000000200000000UL, 0x00000024000000c0UL, 0x200c004200100000UL,
  0x0000000700000006UL, 0x00000002200d0043UL, 0x20110043342ec03fUL, 0x0000000000000000UL,
  0x1c007c0000802041UL, 0x1c02004308880184UL, 0x000008007124de30UL, 0x000000001c0500c3UL,
  0x0000000000000000UL, 0x0000002400000000UL, 0x1c0c004200100000UL, 0x0000000700000006UL,
  0x000000011c0d0043UL, 0x1c1100437124f66fUL, 0x0000000800000000UL, 0x34007c0000802101UL,
  0x3402012308880200UL, 0x00100010342e0060UL, 0x00000c0000c00020UL, 0x0000000200000000UL,
  0x00000024000000c0UL, 0x340c004200100000UL, 0x0000000700000006UL, 0x00000002340d0043UL,
  0x34110043342ec03fUL, 0x0000000000000000UL, 0x14007c0000802001UL, 0x1402004300080100UL,
  0x00001000342fa000UL, 0x00000000140500c3UL, 0x0000000000001000UL, 0x0000002400000000UL,
  0x140c004200100000UL, 0x0000000700000006UL, 0x00000002140d0043UL, 0x14110043342fc03fUL,
  0x0000000000000000UL, 0x28007c00008020a1UL, 0x2802004300080108UL, 0x00001000342ec000UL,
  0x00000000280500c3UL, 0x0000000000001000UL, 0x0000002400000000UL, 0x280c004200100000UL,
  0x0000000700000006UL, 0x00000002280d0043UL, 0x28110043342ee03fUL, 0x0000000000000000UL,
  0x0000002b10077c00UL, 0x00000011100f0063UL, 0x0000001b00000005UL, 0x0000000710150043UL,
  0x101e7c0000000005UL, 0x1024004300000017UL, 0x0000002500000001UL, 0x0000000110007c00UL,
  0x40007c0028002001UL, 0x48007c0010d00021UL, 0x5c00200110d00035UL, 0x1400200168002001UL,
  0x200020011c002001UL, 0x28007fe434002001UL, 0x0000000000000064UL, 0x0000000210007c00UL,
  0x0000006410000424UL, 0x10007c0000000000UL, 0x10007bc440000000UL, 0x0000000000000064UL,
  0x0000000010077c00UL, 0x00000000100f0063UL, 0x0000000000000000UL, 0x0000000010150043UL,
  0x101e7c0000000000UL, 0x1024004300000000UL, 0x0000000000000000UL, 0x0000000228007c00UL,
  0x0000006428000424UL, 0x28007c0000000000UL, 0x28007bc440000000UL, 0x0000000000000064UL,
  0x40007c00008000a1UL, 0x4000042400000002UL, 0x0000000000000064UL, 0x4000000040007c00UL,
  0x0000006440007bc4UL, 0x0080016100000000UL, 0x0000000248007c00UL, 0x0000006448000424UL,
  0x48007c0000000000UL, 0x48007bc440000000UL, 0x0000000000000064UL, 0x5c007c00008001a1UL,
  0x5c00042408000002UL, 0x0000000000000064UL, 0x480000005c007c00UL, 0x000000645c007bc4UL,
  0x0080024100000000UL, 0x0800000268007c00UL, 0x0000006468000424UL, 0x68007c0000000000UL,
  0x68007bc448000000UL, 0x0000000000000064UL, 0x14007c00008002a1UL, 0x1400042400000002UL,
  0x0000000000000064UL, 0x4000000014007c00UL, 0x0000006414007bc4UL, 0x0080000100000000UL,
  0x000000021c007c00UL, 0x000000641c000424UL, 0x1c007c0000000000UL, 0x1c007bc440000000UL,
  0x0000000000000064UL, 0x20007c0000800041UL, 0x2000042400000002UL, 0x0000000000000064UL,
  0x4000000020007c00UL, 0x0000006420007bc4UL, 0x0080006100000000UL, 0x0000000234007c00UL,
  0x0000006434000424UL, 0x34007c0000000000UL, 0x34007bc440000000UL, 0x0000000000000064UL,
  0x000002dd00800101UL, 0x44007c0000802181UL, 0x440200e300000054UL, 0x0000110018100101UL,
  0x0010010010b74003UL, 0x000f000000ff0000UL, 0x440a7c0000170030UL, 0x440c004300000000UL,
  0x0000000000000017UL, 0x3c007c0000802141UL, 0x3c0200e300000040UL, 0x0000110018100101UL,
  0x0010010010a34300UL, 0x000f000000ff0000UL, 0x3c0a7c00002f1830UL, 0x3c0c004300000000UL,
  0x0000000000000017UL, 0x6000004200802261UL, 0x156000fc08000000UL, 0x0008800060020123UL,
  0x0000001700000000UL, 0x0000bfff000017ffUL, 0x0000000000000000UL, 0x00000001050403e9UL,
  0x00000000600c0043UL, 0x600b7c0020422042UL, 0x6100300300000001UL, 0x0000e167fed91e0aUL,
  0x0000e78afed62709UL, 0x0000134cff294825UL, 0x00006526ff0c1e67UL, 0x0000926aff031786UL,
  0x00006871fec32ba6UL, 0x0000638dfef0285eUL, 0x0000d809fed41ef2UL, 0x000094c3ff001badUL,
  0x00003d66fed61ae7UL, 0x0000a656feaa2c1eUL, 0x0000149cfec22466UL, 0x00002973fec71d34UL,
  0x00008501ff421145UL, 0x0000729fff1f2639UL, 0x0000dd8bff3616c6UL, 0x00006a2cff26242cUL,
  0x000087aeff451e46UL, 0x00006c75fef63ddeUL, 0x0000183bff4e2705UL, 0x0000599aff282528UL,
  0x00002712feb61c2bUL, 0x000036c9fefe146fUL, 0x0000dc32ff724129UL, 0x00006510fef82e7eUL,
  0x0000266bfe892501UL, 0x0000b30bff431defUL, 0x0000d73dff5c2935UL, 0x00009d13fea71d3cUL,
  0x0000f3d7ff4313faUL, 0x0000fb0cfee81f4eUL, 0x0000e9d1ff3c2d22UL, 0x00008a21fe9e35acUL,
  0x0000e902ffb10fa8UL, 0x0000f690feb024eeUL, 0x00009716ff961fb2UL, 0x0000bc3ffed91c36UL,
  0x0000f903ff4d1035UL, 0x0000089ffee01c9dUL, 0x0000cef6fea72472UL, 0x0000e6a3ff991f3eUL,
  0x0000d152fed12268UL, 0x0000fc0bff5418c3UL, 0x0000fd95feef3d49UL, 0x00006f16fed9245dUL,
  0x00002018ff241c5cUL, 0x000091afff40208aUL, 0x0000bef1ff661a2cUL, 0x0000b0acff1e2768UL,
  0x0000ee02fec02706UL, 0x00009c0afee62c68UL, 0x0000aa7fff631da4UL, 0x000015feff6a1b96UL,
  0x0000486bff20133fUL, 0x0000390eff394249UL, 0x00007b8ffedc2166UL, 0x0000137bff4f1fecUL,
  0x00007f52fee71d3aUL, 0x00004861febf2145UL, 0x0000e3a0fecf1d17UL, 0x00002d65ff6016e1UL,
  0x0000c5d2fe0f1d00UL, 0x0000af37ff4b1072UL, 0x0000f96aff3321faUL, 0x00009a6afed439ddUL,
  0x000083cbff720b44UL, 0x00006950fed622cfUL, 0x00000503febc15d0UL, 0x000061d0ff1717a0UL,
  0x0000f068ff462e5bUL, 0x0000c720feff13c8UL, 0x00006c97ff0943f6UL, 0x000086e6ff471bb6UL,
  0x000051cffeee2b85UL, 0x000055d5fef3237bUL, 0x00001baafeca1c98UL, 0x0000569fff561a57UL,
  0x00006fedfefd1d29UL, 0x00003094ff7b20d5UL, 0x000051f1fef31700UL, 0x00002556fec63984UL,
  0x000003bfff5012f5UL, 0x00007bf9fef312a1UL, 0x0000ad83fe7e1949UL, 0x00006203ff6216f1UL,
  0x0000a06afebc17e8UL, 0x0000d584ff02305eUL, 0x00004a12ff0613f0UL, 0x00002f5afeab270bUL,
  0x00000f75febe3669UL, 0x00000391fed03518UL, 0x0000dc5efee61afcUL, 0x0000dd70fef21826UL,
  0x0000a43bfeba53c1UL, 0x000090a6fe912d23UL, 0x0000bf0efedb1bafUL, 0x00003beeff2d13b7UL,
  0x000054b1ff06311dUL, 0x0000727cfe9e2257UL, 0x000060bffeaf231cUL, 0x0000dd46ff872687UL,
